[PAD]	0
[UNK]	0
[BOS]	0
[EOS]	0
[MASK]	0
▁我	-0
▁你	-1
什么	-2
▁这	-3
一个	-4
我们	-5
就是	-6
这个	-7
不是	-8
没有	-9
怎么	-10
▁那	-11
他们	-12
知道	-13
现在	-14
自己	-15
时候	-16
可以	-17
▁他	-18
你们	-19
▁不	-20
那个	-21
这么	-22
觉得	-23
▁是	-24
▁我们	-25
因为	-26
我的	-27
还是	-28
已经	-29
这样	-30
但是	-31
所以	-32
的时候	-33
然后	-34
不能	-35
真的	-36
的人	-37
还有	-38
来了	-39
你的	-40
到了	-41
都是	-42
如果	-43
一下	-44
▁就	-45
今天	-46
咱们	-47
▁小	-48
可能	-49
一定	-50
孩子	-51
喜欢	-52
不会	-53
▁对	-54
也是	-55
▁在	-56
可是	-57
了一	-58
应该	-59
大家	-60
▁一	-61
那么	-62
的是	-63
时间	-64
▁有	-65
的事	-66
出来	-67
妈妈	-68
中国	-69
的话	-70
其实	-71
也不	-72
▁她	-73
给我	-74
他的	-75
▁好	-76
东西	-77
起来	-78
了我	-79
以后	-80
▁这个	-81
一起	-82
我就	-83
朋友	-84
一样	-85
▁哎	-86
给你	-87
问题	-88
▁你们	-89
为什么	-90
非常	-91
两个	-92
▁但是	-93
的一	-94
这些	-95
告诉	-96
人的	-97
▁所以	-98
▁就是	-99
你说	-100
为了	-101
这是	-102
很多	-103
在这	-104
特别	-105
开始	-106
事儿	-107
要是	-108
一点	-109
去了	-110
好的	-111
回来	-112
自己的	-113
看看	-114
不要	-115
▁如果	-116
大的	-117
而且	-118
这种	-119
不知道	-120
发现	-121
跟我	-122
▁嗯	-123
哈哈	-124
一直	-125
老师	-126
好了	-127
工作	-128
看到	-129
▁大	-130
▁现在	-131
是不是	-132
一次	-133
需要	-134
下来	-135
让我	-136
地方	-137
▁他们	-138
爸爸	-139
▁当	-140
了你	-141
里面	-142
▁还	-143
事情	-144
有一	-145
生活	-146
不好	-147
谢谢	-148
之后	-149
▁要	-150
▁只	-151
意思	-152
希望	-153
肯定	-154
▁您	-155
▁也	-156
关系	-157
▁然后	-158
▁老	-159
感觉	-160
走了	-161
过来	-162
▁这是	-163
上的	-164
▁可是	-165
我是	-166
了吗	-167
好好	-168
我觉得	-169
人家	-170
之前	-171
所有	-172
▁说	-173
▁啊	-174
会儿	-175
的小	-176
▁但	-177
我们的	-178
世界	-179
都不	-180
先生	-181
最后	-182
说你	-183
▁没	-184
来的	-185
有什么	-186
真是	-187
▁可	-188
▁因为	-189
▁怎么	-190
重要	-191
比较	-192
哪儿	-193
说我	-194
这一	-195
一个人	-196
刚才	-197
能够	-198
准备	-199
公司	-200
出去	-201
正确	-202
心里	-203
跟你	-204
办法	-205
是一	-206
情况	-207
不了	-208
我也	-209
你就	-210
是我	-211
▁看	-212
回去	-213
了吧	-214
一些	-215
的那	-216
虽然	-217
不过	-218
有点	-219
儿子	-220
比赛	-221
▁它	-222
电话	-223
这儿	-224
▁不是	-225
第一	-226
晚上	-227
▁把	-228
的事情	-229
让你	-230
最近	-231
▁其实	-232
国家	-233
到底	-234
当时	-235
个人	-236
好像	-237
里的	-238
发生	-239
▁我是	-240
电影	-241
必须	-242
▁从	-243
我不	-244
清楚	-245
中的	-246
了一个	-247
▁我就	-248
▁来	-249
▁咱们	-250
▁都	-251
二十	-252
马上	-253
啊我	-254
只是	-255
通过	-256
的大	-257
▁今天	-258
过去	-259
有一个	-260
说的	-261
相信	-262
第二	-263
多少	-264
▁别	-265
以前	-266
想到	-267
怎么样	-268
进行	-269
这样的	-270
明白	-271
说了	-272
赶紧	-273
▁不过	-274
确实	-275
以为	-276
看见	-277
兄弟	-278
▁还有	-279
日本	-280
你是	-281
几个	-282
子的	-283
出了	-284
故事	-285
姑娘	-286
回家	-287
不到	-288
就不	-289
▁我觉得	-290
发展	-291
那些	-292
家里	-293
突然	-294
不起	-295
运动	-296
▁再	-297
你看	-298
后来	-299
别人	-300
这里	-301
▁而	-302
一定要	-303
她的	-304
▁而且	-305
▁那你	-306
成了	-307
只有	-308
机会	-309
结果	-310
这次	-311
是一个	-312
离开	-313
在这儿	-314
高兴	-315
是什么	-316
▁呃	-317
错误	-318
找到	-319
原来	-320
不同	-321
愿意	-322
▁让	-323
的一个	-324
上了	-325
就会	-326
不行	-327
一天	-328
▁你说	-329
了啊	-330
女儿	-331
认识	-332
社会	-333
明天	-334
在一起	-335
之间	-336
▁什么	-337
容易	-338
放心	-339
影响	-340
因此	-341
跟你说	-342
任何	-343
身体	-344
▁那个	-345
决定	-346
▁没有	-347
▁谁	-348
说话	-349
是个	-350
衣服	-351
根本	-352
每天	-353
有人	-354
听说	-355
出现	-356
啊你	-357
▁哈哈	-358
还不	-359
眼睛	-360
▁我也	-361
都没有	-362
给他	-363
下去	-364
不想	-365
我我	-366
看着	-367
的地方	-368
年的	-369
厉害	-370
不得	-371
直接	-372
或者	-373
小姐	-374
▁我想	-375
同志	-376
我想	-377
美国	-378
记得	-379
父亲	-380
选择	-381
死了	-382
▁你是	-383
那种	-384
于是	-385
▁等	-386
干什么	-387
动物	-388
认为	-389
继续	-390
不用	-391
▁人	-392
三个	-393
我都	-394
完全	-395
女人	-396
▁下	-397
还没	-398
手机	-399
家的	-400
▁你看	-401
房子	-402
奶奶	-403
吃饭	-404
公主	-405
的这个	-406
成为	-407
多了	-408
是吧	-409
大人	-410
我要	-411
▁是啊	-412
作为	-413
才能	-414
它们	-415
的东西	-416
过了	-417
一块	-418
学生	-419
还要	-420
的事儿	-421
▁行	-422
告诉你	-423
同学	-424
安全	-425
反正	-426
既然	-427
有个	-428
▁哦	-429
▁这样	-430
也没	-431
了解	-432
那儿	-433
身上	-434
过程	-435
只能	-436
是在	-437
这么多	-438
了他	-439
带着	-440
学校	-441
正在	-442
▁想	-443
医院	-444
让他	-445
真的是	-446
干吗	-447
根据	-448
来说	-449
终于	-450
把我	-451
方面	-452
只要	-453
年轻	-454
其他	-455
日子	-456
样子	-457
担心	-458
你要	-459
声音	-460
漂亮	-461
当然	-462
▁我的	-463
刚刚	-464
跟他	-465
学习	-466
大哥	-467
不错	-468
一种	-469
姐姐	-470
他们的	-471
就要	-472
▁还是	-473
保护	-474
我说	-475
▁本	-476
怎么办	-477
一会儿	-478
有没有	-479
哥哥	-480
▁一个	-481
主要	-482
爷爷	-483
▁又	-484
开心	-485
一只	-486
句话	-487
帮我	-488
色的	-489
文化	-490
上面	-491
整个	-492
你不	-493
几天	-494
答案	-495
太阳	-496
能不能	-497
它的	-498
答应	-499
得到	-500
作用	-501
都没	-502
一定会	-503
▁我要	-504
消息	-505
变成	-506
下的	-507
去找	-508
难道	-509
环境	-510
老板	-511
▁你就	-512
自然	-513
的那个	-514
进去	-515
的我	-516
来到	-517
▁大家	-518
如何	-519
参加	-520
不对	-521
设计	-522
也没有	-523
越来	-524
多的	-525
结婚	-526
没事	-527
三十	-528
能力	-529
方式	-530
▁嗯嗯	-531
游戏	-532
成功	-533
越来越	-534
是你	-535
这件	-536
回来了	-537
研究	-538
都有	-539
做的	-540
昨天	-541
所有的	-542
那边	-543
任务	-544
部分	-545
技术	-546
属于	-547
我还	-548
哪里	-549
名字	-550
都在	-551
男人	-552
身边	-553
▁那么	-554
你怎么	-555
医生	-556
你这	-557
狐狸	-558
▁请	-559
样的	-560
看了	-561
很好	-562
子里	-563
都会	-564
注意	-565
跟着	-566
同时	-567
▁我不	-568
将军	-569
速度	-570
▁你怎么	-571
新闻	-572
新的	-573
完了	-574
▁只要	-575
▁咱	-576
有些	-577
你也	-578
要求	-579
照顾	-580
经过	-581
经济	-582
帮助	-583
▁天	-584
比如	-585
平时	-586
对我	-587
长的	-588
在我	-589
▁这么	-590
努力	-591
▁到	-592
解决	-593
人们	-594
休息	-595
慢慢	-596
▁为什么	-597
条件	-598
变化	-599
是谁	-600
来来	-601
你了	-602
麻烦	-603
▁那我	-604
思考	-605
千万	-606
住了	-607
回到	-608
▁上	-609
▁你要	-610
国王	-611
毕竟	-612
实在	-613
方向	-614
▁王	-615
物体	-616
想要	-617
经常	-618
▁二	-619
▁我看	-620
电视	-621
理解	-622
▁哎呀	-623
一般	-624
你知道	-625
如此	-626
▁这些	-627
历史	-628
进入	-629
▁去	-630
北京	-631
当中	-632
把你	-633
就在	-634
我去	-635
听到	-636
除了	-637
小心	-638
绝对	-639
外面	-640
上去	-641
什么时候	-642
考虑	-643
后面	-644
的就是	-645
母亲	-646
在这里	-647
植物	-648
▁和	-649
永远	-650
▁快	-651
把他	-652
把它	-653
幸福	-654
简单	-655
早就	-656
关于	-657
▁我知道	-658
好多	-659
人民	-660
▁我现在	-661
生命	-662
精神	-663
皇上	-664
是有	-665
我在	-666
表现	-667
基本	-668
一看	-669
10	-670
老鼠	-671
完成	-672
全部	-673
小时	-674
的吗	-675
真正	-676
一条	-677
反应	-678
大了	-679
下了	-680
还在	-681
家人	-682
我这	-683
妹妹	-684
她们	-685
他是	-686
会有	-687
▁最	-688
见过	-689
一边	-690
原因	-691
也有	-692
▁你的	-693
从来	-694
▁你这	-695
很快	-696
行动	-697
代表	-698
包括	-699
女孩	-700
改变	-701
面前	-702
材料	-703
地说	-704
美丽	-705
辈子	-706
就可以	-707
得了	-708
节目	-709
第一次	-710
十分	-711
▁我这	-712
位置	-713
行了	-714
甚至	-715
无法	-716
地上	-717
关注	-718
不然	-719
好不好	-720
▁虽然	-721
▁三	-722
吃的	-723
着急	-724
对于	-725
方法	-726
▁每	-727
▁对啊	-728
危险	-729
组织	-730
两天	-731
父母	-732
帮你	-733
大学	-734
▁谢谢	-735
现场	-736
▁李	-737
计划	-738
放在	-739
那么多	-740
路上	-741
警察	-742
安排	-743
产生	-744
不见	-745
还能	-746
小的	-747
活动	-748
利用	-749
出来了	-750
共产	-751
▁阿	-752
这个人	-753
对对	-754
的呀	-755
联系	-756
▁为	-757
▁跟	-758
做了	-759
使用	-760
曾经	-761
着我	-762
不可	-763
房间	-764
你你	-765
▁妈妈	-766
是因为	-767
上海	-768
处理	-769
20	-770
接受	-771
开了	-772
很有	-773
▁是不是	-774
他就	-775
说明	-776
的啊	-777
▁为了	-778
生气	-779
算是	-780
了这	-781
回答	-782
告诉我	-783
应该是	-784
国的	-785
不住	-786
存在	-787
什么呀	-788
接下来	-789
的时间	-790
科学	-791
▁以后	-792
负责	-793
政府	-794
▁能	-795
我看	-796
起了	-797
百姓	-798
▁可以	-799
不管	-800
你别	-801
实验	-802
来看	-803
部队	-804
不太	-805
总是	-806
鬼子	-807
别的	-808
人类	-809
队长	-810
你去	-811
▁太	-812
说是	-813
有的	-814
你在	-815
不在	-816
共产党	-817
那里	-818
夫人	-819
就像	-820
有了	-821
身份	-822
你还	-823
人都	-824
各种	-825
跟我说	-826
本来	-827
细胞	-828
进了	-829
我现在	-830
▁思考	-831
一步	-832
许多	-833
由于	-834
其中	-835
快乐	-836
▁给	-837
▁会	-838
解释	-839
生物	-840
好啊	-841
调查	-842
感情	-843
出的	-844
我来	-845
一切	-846
弟弟	-847
里边	-848
支持	-849
观察	-850
不一样	-851
▁于是	-852
▁以	-853
▁我还	-854
▁原来	-855
不上	-856
正好	-857
您的	-858
打电话	-859
我知道	-860
实际	-861
见到	-862
城市	-863
另外	-864
都要	-865
合作	-866
好看	-867
状态	-868
▁都是	-869
点儿	-870
选项	-871
照片	-872
教育	-873
出来的	-874
分钟	-875
两个人	-876
信息	-877
对你	-878
段时间	-879
足球	-880
主义	-881
得很	-882
遇到	-883
▁后来	-884
▁此	-885
就能	-886
▁这次	-887
说法	-888
森林	-889
领导	-890
吃了	-891
▁多	-892
睡觉	-893
你们的	-894
在这个	-895
怀疑	-896
▁你不	-897
欢迎	-898
日本人	-899
感谢	-900
竟然	-901
坚持	-902
空气	-903
受到	-904
走吧	-905
前面	-906
不敢	-907
地球	-908
那是	-909
天天	-910
老婆	-911
▁当然	-912
事啊	-913
哪个	-914
我了	-915
打算	-916
害怕	-917
爱的	-918
说不	-919
系统	-920
▁看来	-921
▁你也	-922
▁既然	-923
关键	-924
居然	-925
生意	-926
▁你还	-927
太太	-928
时代	-929
的好	-930
你想	-931
让人	-932
一百	-933
▁当时	-934
介绍	-935
商量	-936
的心	-937
对不起	-938
苹果	-939
正常	-940
才是	-941
一件	-942
兔子	-943
心的	-944
▁我在	-945
成的	-946
演员	-947
▁我说	-948
保证	-949
一年	-950
奇怪	-951
司令	-952
质量	-953
道理	-954
辛苦	-955
▁用	-956
可能是	-957
十二	-958
对吧	-959
好吗	-960
▁难道	-961
▁真的	-962
说他	-963
▁你知道	-964
叔叔	-965
各位	-966
让我们	-967
进来	-968
▁反正	-969
我会	-970
▁听	-971
你啊	-972
我们就	-973
一声	-974
证明	-975
表示	-976
打开	-977
了呢	-978
▁妈	-979
主任	-980
一位	-981
▁要是	-982
的故事	-983
的问题	-984
不多	-985
家庭	-986
师父	-987
▁今	-988
控制	-989
市场	-990
接着	-991
说什么	-992
公子	-993
知识	-994
严重	-995
那你	-996
也不知道	-997
五十	-998
面对	-999
给我们	-1000
还没有	-1001
要去	-1002
按照	-1003
▁你别	-1004
把这	-1005
▁因此	-1006
怎么了	-1007
篮球	-1008
报告	-1009
▁真	-1010
年前	-1011
音乐	-1012
不着	-1013
▁张	-1014
中央	-1015
不知	-1016
不仅	-1017
聪明	-1018
忘了	-1019
首先	-1020
▁也是	-1021
同意	-1022
责任	-1023
等着	-1024
重要的	-1025
▁先	-1026
拿着	-1027
▁第二	-1028
生的	-1029
物质	-1030
问你	-1031
▁那就	-1032
不容易	-1033
给她	-1034
没想到	-1035
小子	-1036
媳妇	-1037
民族	-1038
主人	-1039
第三	-1040
的这	-1041
更加	-1042
力量	-1043
长得	-1044
变得	-1045
▁不要	-1046
有关	-1047
就是说	-1048
项目	-1049
站在	-1050
人员	-1051
挺好的	-1052
没什么	-1053
阿姨	-1054
食物	-1055
▁两	-1056
革命	-1057
提供	-1058
我有	-1059
让她	-1060
错了	-1061
具有	-1062
生产	-1063
的情况	-1064
说得	-1065
分析	-1066
结束	-1067
跟她	-1068
知道了	-1069
这边	-1070
▁打	-1071
想法	-1072
▁爸爸	-1073
无论	-1074
证据	-1075
万一	-1076
合适	-1077
训练	-1078
用的	-1079
那样	-1080
中国的	-1081
把这个	-1082
去吧	-1083
也会	-1084
重新	-1085
的老	-1086
命令	-1087
再见	-1088
第一个	-1089
经历	-1090
似的	-1091
不可能	-1092
秘密	-1093
皇帝	-1094
很难	-1095
不断	-1096
呢我	-1097
亲自	-1098
确定	-1099
天下	-1100
▁刚才	-1101
手里	-1102
门口	-1103
▁你现在	-1104
距离	-1105
坐在	-1106
导致	-1107
▁做	-1108
四十	-1109
去看	-1110
你好	-1111
符合	-1112
地区	-1113
实现	-1114
了个	-1115
▁已经	-1116
自由	-1117
妻子	-1118
那我	-1119
随便	-1120
行为	-1121
的你	-1122
倒是	-1123
力的	-1124
▁刘	-1125
想想	-1126
政治	-1127
方便	-1128
▁走	-1129
不少	-1130
简直	-1131
▁全	-1132
▁我会	-1133
少爷	-1134
是怎么	-1135
我自己	-1136
适合	-1137
▁我就是	-1138
立刻	-1139
了就	-1140
一直在	-1141
▁总	-1142
好吧	-1143
▁并	-1144
我们家	-1145
感到	-1146
和小	-1147
战争	-1148
我一	-1149
艺术	-1150
也很	-1151
干嘛	-1152
意义	-1153
目前	-1154
再说	-1155
最大的	-1156
▁这种	-1157
飞机	-1158
来找	-1159
现象	-1160
一定是	-1161
舒服	-1162
就没	-1163
敌人	-1164
也不是	-1165
有很多	-1166
▁将	-1167
收拾	-1168
礼物	-1169
听见	-1170
内容	-1171
下面	-1172
为什么要	-1173
都能	-1174
XX	-1175
比如说	-1176
从小	-1177
放弃	-1178
旁边	-1179
就没有	-1180
专业	-1181
▁这就是	-1182
▁像	-1183
估计	-1184
人了	-1185
那天	-1186
英雄	-1187
肚子	-1188
找到了	-1189
他在	-1190
队的	-1191
高的	-1192
思想	-1193
石头	-1194
块钱	-1195
紧张	-1196
四个	-1197
▁人家	-1198
最好的	-1199
不去	-1200
对不对	-1201
唯一	-1202
▁自	-1203
的样子	-1204
早上	-1205
企业	-1206
观众	-1207
▁陈	-1208
▁中国	-1209
▁哈哈哈	-1210
哎呀	-1211
12	-1212
他说	-1213
国际	-1214
肯定是	-1215
如今	-1216
形成	-1217
一场	-1218
结构	-1219
做什么	-1220
兴趣	-1221
成绩	-1222
▁被	-1223
的手	-1224
的地	-1225
▁正	-1226
共同	-1227
是我们	-1228
不就	-1229
了我们	-1230
一块儿	-1231
表演	-1232
在哪儿	-1233
先走了	-1234
▁连	-1235
▁最后	-1236
的生活	-1237
说这	-1238
中间	-1239
以及	-1240
实话	-1241
增加	-1242
吧我	-1243
你能	-1244
▁就算	-1245
▁根据	-1246
当年	-1247
留下	-1248
几年	-1249
价值	-1250
一片	-1251
过的	-1252
▁我怎么	-1253
起来了	-1254
压力	-1255
回事	-1256
不懂	-1257
离婚	-1258
▁明天	-1259
的呢	-1260
每次	-1261
有多	-1262
并不	-1263
▁白	-1264
▁可能	-1265
▁应该	-1266
帮忙	-1267
判断	-1268
回头	-1269
国民	-1270
相同	-1271
▁你不是	-1272
尤其	-1273
普通	-1274
了起来	-1275
王子	-1276
▁只有	-1277
给你们	-1278
检查	-1279
让他们	-1280
是否	-1281
等等	-1282
大家都	-1283
困难	-1284
▁这时	-1285
伤害	-1286
过程中	-1287
▁更	-1288
零一	-1289
服务	-1290
实力	-1291
所谓	-1292
和你	-1293
的水	-1294
▁我我	-1295
会不会	-1296
上来	-1297
获得	-1298
▁不能	-1299
孩子们	-1300
分子	-1301
▁下列	-1302
▁若	-1303
寻找	-1304
梦想	-1305
十五	-1306
掉了	-1307
保持	-1308
猴子	-1309
就算	-1310
习惯	-1311
至于	-1312
看到了	-1313
看来	-1314
冠军	-1315
你自己	-1316
之间的	-1317
青蛙	-1318
坏了	-1319
恐怕	-1320
▁要不	-1321
体的	-1322
工程	-1323
导演	-1324
活着	-1325
老爷	-1326
▁你要是	-1327
是要	-1328
▁不管	-1329
脑袋	-1330
这事儿	-1331
▁前	-1332
的声音	-1333
通知	-1334
量的	-1335
阳光	-1336
动了	-1337
分之	-1338
师傅	-1339
月亮	-1340
意见	-1341
见面	-1342
咱俩	-1343
并没有	-1344
果然	-1345
走走	-1346
仔细	-1347
附近	-1348
我没	-1349
什么呢	-1350
00	-1351
也不能	-1352
就把	-1353
跑了	-1354
汽车	-1355
走到	-1356
颜色	-1357
着你	-1358
着一	-1359
也要	-1360
健康	-1361
快点	-1362
作品	-1363
嫌疑	-1364
说过	-1365
▁好像	-1366
杀了	-1367
▁很	-1368
你现在	-1369
的那种	-1370
队伍	-1371
主意	-1372
关心	-1373
给了	-1374
大夫	-1375
每个	-1376
▁长	-1377
世界上	-1378
喝酒	-1379
时期	-1380
丈夫	-1381
▁哪	-1382
传统	-1383
爱情	-1384
▁我跟	-1385
过去了	-1386
着呢	-1387
我跟	-1388
也不会	-1389
▁希望	-1390
▁这里	-1391
必要	-1392
温度	-1393
管理	-1394
性的	-1395
还得	-1396
挑战	-1397
▁他的	-1398
配合	-1399
▁高	-1400
你有	-1401
指挥	-1402
给您	-1403
视频	-1404
态度	-1405
男孩	-1406
宝贝	-1407
还挺	-1408
后的	-1409
▁我都	-1410
和我	-1411
赶快	-1412
生日	-1413
那就	-1414
听了	-1415
是我的	-1416
上班	-1417
警方	-1418
是一种	-1419
这件事情	-1420
满了	-1421
▁周	-1422
长时间	-1423
▁哇	-1424
拜拜	-1425
不出	-1426
啊这	-1427
随着	-1428
请你	-1429
对方	-1430
一家	-1431
到现在	-1432
产品	-1433
经验	-1434
客气	-1435
发现了	-1436
味道	-1437
把她	-1438
表达	-1439
差不多	-1440
看过	-1441
▁明	-1442
▁最近	-1443
一个小	-1444
▁对呀	-1445
▁马	-1446
忽然	-1447
都很	-1448
到的	-1449
主要是	-1450
这么说	-1451
▁我已经	-1452
是不	-1453
的吧	-1454
▁中	-1455
十年	-1456
目标	-1457
提高	-1458
空间	-1459
未来	-1460
宝宝	-1461
是吗	-1462
只好	-1463
住在	-1464
怎么会	-1465
不及	-1466
加油	-1467
两位	-1468
心情	-1469
娘娘	-1470
手术	-1471
就有	-1472
什么事	-1473
这么大	-1474
军的	-1475
▁那是	-1476
子上	-1477
至少	-1478
尾巴	-1479
跑到	-1480
▁让我	-1481
我们要	-1482
的最	-1483
建立	-1484
天的	-1485
用了	-1486
不同的	-1487
在了	-1488
这位	-1489
人啊	-1490
受伤	-1491
氧化	-1492
正确答案	-1493
地的	-1494
加入	-1495
▁但是我	-1496
优秀	-1497
叫我	-1498
老虎	-1499
什么都	-1500
▁真是	-1501
建设	-1502
真实	-1503
的一些	-1504
对他	-1505
▁我去	-1506
垃圾	-1507
办公	-1508
在家	-1509
想着	-1510
教授	-1511
的家	-1512
故意	-1513
发生了	-1514
也就	-1515
感受	-1516
不如	-1517
不是我	-1518
在你	-1519
对了	-1520
恢复	-1521
也得	-1522
基础	-1523
教练	-1524
选手	-1525
一把	-1526
耳朵	-1527
分别	-1528
也可以	-1529
实际上	-1530
一样的	-1531
欺负	-1532
而已	-1533
稳定	-1534
了好	-1535
专门	-1536
误会	-1537
大概	-1538
是为了	-1539
因为我	-1540
▁你想	-1541
多久	-1542
接触	-1543
三年	-1544
名的	-1545
情报	-1546
▁你是不是	-1547
法律	-1548
老人	-1549
期待	-1550
▁爸	-1551
可爱	-1552
科技	-1553
今年	-1554
不说	-1555
了一下	-1556
没错	-1557
左右	-1558
▁是我	-1559
有一天	-1560
几乎	-1561
单位	-1562
的对	-1563
跟我们	-1564
很喜欢	-1565
数据	-1566
不够	-1567
结合	-1568
现在的	-1569
又是	-1570
真正的	-1571
年轻人	-1572
最终	-1573
一张	-1574
水平	-1575
记录	-1576
行吗	-1577
也太	-1578
值得	-1579
你可以	-1580
嫂子	-1581
被人	-1582
▁年	-1583
资源	-1584
你这个	-1585
交代	-1586
执行	-1587
你会	-1588
面上	-1589
动作	-1590
你一	-1591
死的	-1592
了很多	-1593
建筑	-1594
干净	-1595
杀人	-1596
目的	-1597
出发	-1598
可知	-1599
▁这一	-1600
▁所以我	-1601
底下	-1602
的意思	-1603
多年	-1604
什么的	-1605
银行	-1606
凶手	-1607
着了	-1608
不好意思	-1609
蚂蚁	-1610
快快	-1611
相关	-1612
测量	-1613
电脑	-1614
团长	-1615
▁我们的	-1616
美的	-1617
头上	-1618
特殊	-1619
也好	-1620
美丽的	-1621
承认	-1622
全国	-1623
机器	-1624
很大的	-1625
▁吃	-1626
你们俩	-1627
带来	-1628
意识	-1629
▁没想到	-1630
我已经	-1631
出门	-1632
我就是	-1633
▁只是	-1634
▁是的	-1635
还会	-1636
这就是	-1637
到我	-1638
记住	-1639
面的	-1640
人在	-1641
就去	-1642
不不	-1643
大小	-1644
▁他是	-1645
▁比	-1646
功能	-1647
舞台	-1648
你来	-1649
玩笑	-1650
放心吧	-1651
头发	-1652
一口	-1653
这部	-1654
你先	-1655
▁不知道	-1656
可怜	-1657
的工作	-1658
陛下	-1659
脾气	-1660
制度	-1661
建议	-1662
那个时候	-1663
其他的	-1664
很大	-1665
小孩	-1666
可能会	-1667
▁确实	-1668
唱歌	-1669
考查	-1670
十八	-1671
▁与	-1672
究竟	-1673
殿下	-1674
胜利	-1675
然而	-1676
认真	-1677
见了	-1678
▁金	-1679
的孩子	-1680
下列	-1681
▁才	-1682
标准	-1683
小熊	-1684
也在	-1685
▁你好	-1686
▁黄	-1687
你知道吗	-1688
叫做	-1689
制作	-1690
夫妻	-1691
失败	-1692
这件事	-1693
资料	-1694
上次	-1695
案子	-1696
是这样	-1697
线索	-1698
正确的是	-1699
随时	-1700
▁我不是	-1701
主动	-1702
女的	-1703
▁过	-1704
小时候	-1705
我能	-1706
做好	-1707
溶液	-1708
上一	-1709
呢你	-1710
来自	-1711
走啊	-1712
满足	-1713
我怎么	-1714
具体	-1715
女朋友	-1716
主席	-1717
▁杨	-1718
可惜	-1719
送到	-1720
想象	-1721
明星	-1722
明白了	-1723
▁的	-1724
真的很	-1725
最好	-1726
朋友们	-1727
▁如果你	-1728
都已经	-1729
要不	-1730
生长	-1731
体育	-1732
情绪	-1733
▁这不是	-1734
正确答案是	-1735
抓住	-1736
痛苦	-1737
不开	-1738
就好了	-1739
去哪儿	-1740
都可以	-1741
有一些	-1742
提醒	-1743
了她	-1744
直到	-1745
送给	-1746
外的	-1747
种子	-1748
老公	-1749
一大	-1750
就这么	-1751
牺牲	-1752
呢是	-1753
▁我今天	-1754
中心	-1755
喜欢的	-1756
特点	-1757
规定	-1758
▁不会	-1759
的一种	-1760
星星	-1761
找我	-1762
▁却	-1763
可不	-1764
干啥	-1765
了那	-1766
日军	-1767
当初	-1768
投资	-1769
现实	-1770
心理	-1771
交给	-1772
▁听说	-1773
▁据	-1774
▁林	-1775
减少	-1776
很久	-1777
毕业	-1778
▁该	-1779
想办法	-1780
我没有	-1781
更多	-1782
得好	-1783
女生	-1784
小白	-1785
战斗	-1786
排除	-1787
我还是	-1788
加上	-1789
一趟	-1790
试试	-1791
去的	-1792
记忆	-1793
复杂	-1794
了呀	-1795
似乎	-1796
熟悉	-1797
▁这件	-1798
我和	-1799
道歉	-1800
松鼠	-1801
球员	-1802
并不是	-1803
我可以	-1804
▁昨天	-1805
参与	-1806
的关系	-1807
一阵	-1808
▁何	-1809
了大	-1810
尽快	-1811
▁得	-1812
满意	-1813
地下	-1814
生态	-1815
半天	-1816
有时候	-1817
▁我没	-1818
必须要	-1819
规矩	-1820
集团	-1821
▁哥	-1822
再次	-1823
改革	-1824
书记	-1825
人呢	-1826
是他	-1827
▁由	-1828
的高	-1829
就说	-1830
周围	-1831
东北	-1832
一句	-1833
工具	-1834
轻轻	-1835
时刻	-1836
了这个	-1837
伤心	-1838
彻底	-1839
传播	-1840
来到了	-1841
后悔	-1842
行行	-1843
问问	-1844
一下子	-1845
狮子	-1846
还真	-1847
还可以	-1848
▁十	-1849
创造	-1850
学会	-1851
▁新	-1852
到处	-1853
的感觉	-1854
知道吗	-1855
抗日	-1856
不成	-1857
▁一天	-1858
消失	-1859
鼻子	-1860
实在是	-1861
粮食	-1862
通常	-1863
不停	-1864
天空	-1865
▁也许	-1866
忘记	-1867
互相	-1868
得太	-1869
电视剧	-1870
百分之	-1871
我给你	-1872
不出来	-1873
▁找	-1874
相互	-1875
题意	-1876
提出	-1877
说啊	-1878
犯罪	-1879
背后	-1880
给他们	-1881
没人	-1882
▁你在	-1883
不动	-1884
基因	-1885
体现	-1886
水的	-1887
之一	-1888
就是我	-1889
你都	-1890
否则	-1891
着他	-1892
读书	-1893
之中	-1894
程度	-1895
变成了	-1896
信任	-1897
极了	-1898
没关系	-1899
而是	-1900
掌握	-1901
我们在	-1902
你呢	-1903
解放	-1904
那一	-1905
年纪	-1906
的电	-1907
中国人	-1908
去看看	-1909
留在	-1910
立即	-1911
漂亮的	-1912
网络	-1913
▁大哥	-1914
五年	-1915
了一些	-1916
办公室	-1917
事了	-1918
能量	-1919
说道	-1920
呀你	-1921
的不	-1922
长大	-1923
说说	-1924
是啊	-1925
▁放	-1926
经理	-1927
事实	-1928
伙伴	-1929
没有人	-1930
▁开	-1931
下午	-1932
去啊	-1933
天气	-1934
派人	-1935
等于	-1936
明显	-1937
职业	-1938
制造	-1939
眼前	-1940
下次	-1941
人生	-1942
全都	-1943
怎么能	-1944
▁公	-1945
等我	-1946
不愿意	-1947
怎样	-1948
拿到	-1949
相当	-1950
为你	-1951
不下	-1952
国内	-1953
▁我有	-1954
没有什么	-1955
男朋友	-1956
▁那我们	-1957
▁你说你	-1958
又不是	-1959
激动	-1960
利益	-1961
▁对于	-1962
到时候	-1963
去做	-1964
台湾	-1965
独立	-1966
吸引	-1967
▁海	-1968
大声	-1969
不喜欢	-1970
意外	-1971
精彩	-1972
香港	-1973
方案	-1974
▁我也是	-1975
偷偷	-1976
时的	-1977
国民党	-1978
的钱	-1979
脑子	-1980
交通	-1981
不再	-1982
理由	-1983
打了	-1984
▁好了	-1985
那时候	-1986
咖啡	-1987
军事	-1988
▁早	-1989
▁有什么	-1990
尽管	-1991
▁赵	-1992
并且	-1993
我妈	-1994
范围	-1995
女子	-1996
恋爱	-1997
动手	-1998
发挥	-1999
人物	-2000
角色	-2001
呼吸	-2002
是最	-2003
▁结果	-2004
▁要不然	-2005
呢就是	-2006
一九	-2007
基本上	-2008
多少钱	-2009
定了	-2010
家伙	-2011
给大家	-2012
做到	-2013
▁花	-2014
正式	-2015
依然	-2016
▁肯定	-2017
就得	-2018
千万别	-2019
局长	-2020
场上	-2021
南京	-2022
顺利	-2023
▁无	-2024
我再	-2025
的了	-2026
的机会	-2027
造成	-2028
本身	-2029
▁你可	-2030
火车	-2031
说我们	-2032
▁以前	-2033
▁知道	-2034
明明	-2035
会议	-2036
▁四	-2037
也许	-2038
喜欢看	-2039
公司的	-2040
这事	-2041
的日子	-2042
▁即	-2043
阶段	-2044
提前	-2045
蝴蝶	-2046
上学	-2047
交流	-2048
将来	-2049
专家	-2050
做出	-2051
才会	-2052
方的	-2053
以来	-2054
悄悄	-2055
孩子的	-2056
只小	-2057
玻璃	-2058
▁水	-2059
三天	-2060
非常的	-2061
年龄	-2062
▁没事	-2063
的那些	-2064
矛盾	-2065
者的	-2066
把自己	-2067
拒绝	-2068
更多的	-2069
英国	-2070
BA	-2071
网上	-2072
类的	-2073
男主	-2074
这么多年	-2075
世纪	-2076
案件	-2077
死亡	-2078
▁一九	-2079
整天	-2080
树上	-2081
叶子	-2082
国家的	-2083
▁红	-2084
找不到	-2085
心中	-2086
发出	-2087
爸爸妈妈	-2088
▁山	-2089
便宜	-2090
▁自己	-2091
好吃	-2092
成立	-2093
▁是呀	-2094
想起	-2095
董事	-2096
什么意思	-2097
十一	-2098
本事	-2099
▁给我	-2100
准确	-2101
你这么	-2102
这不是	-2103
事件	-2104
AN	-2105
对手	-2106
▁本题	-2107
▁我可以	-2108
▁没错	-2109
我不是	-2110
别别	-2111
▁你跟	-2112
相对	-2113
汇报	-2114
想的	-2115
进步	-2116
▁一会儿	-2117
讨厌	-2118
今天的	-2119
培养	-2120
你可	-2121
文明	-2122
我呀	-2123
就这样	-2124
也能	-2125
还有一个	-2126
19	-2127
▁刚	-2128
暂时	-2129
效果	-2130
▁不用	-2131
不来	-2132
买了	-2133
达到	-2134
现代	-2135
我爸	-2136
形式	-2137
数的	-2138
BL	-2139
买的	-2140
再来	-2141
这条	-2142
迅速	-2143
▁这不	-2144
做得	-2145
▁选项	-2146
印象	-2147
计算	-2148
运动员	-2149
了小	-2150
尤其是	-2151
▁接下来	-2152
▁一直	-2153
老大	-2154
▁也不	-2155
正是	-2156
ANK	-2157
聊天	-2158
我们是	-2159
反而	-2160
有钱	-2161
作业	-2162
球队	-2163
也就是	-2164
BLANK	-2165
▁这位	-2166
▁五	-2167
写的	-2168
▁或者	-2169
它是	-2170
▁叫	-2171
考试	-2172
鸡蛋	-2173
三百	-2174
定的	-2175
土地	-2176
感动	-2177
我真的	-2178
元素	-2179
钥匙	-2180
就好	-2181
▁我和	-2182
一遍	-2183
话说	-2184
姐妹	-2185
农民	-2186
半个	-2187
在大	-2188
客人	-2189
我得	-2190
▁本来	-2191
我们俩	-2192
军队	-2193
出一	-2194
剩下	-2195
原子	-2196
的比赛	-2197
就被	-2198
▁我告诉你	-2199
过来了	-2200
他不	-2201
可怕	-2202
▁之前	-2203
▁赶紧	-2204
没了	-2205
讨论	-2206
武器	-2207
嘴巴	-2208
特征	-2209
一点儿	-2210
早点	-2211
很多人	-2212
六十	-2213
了几	-2214
屋里	-2215
仍然	-2216
点的	-2217
▁特别	-2218
行的	-2219
委屈	-2220
好朋友	-2221
最大	-2222
记者	-2223
多么	-2224
政策	-2225
丰富	-2226
太子	-2227
尊重	-2228
文章	-2229
▁我跟你说	-2230
破坏	-2231
统一	-2232
大王	-2233
怎么说	-2234
太多	-2235
打个	-2236
化学	-2237
性格	-2238
难受	-2239
师兄	-2240
面子	-2241
是真的	-2242
星期	-2243
▁后	-2244
有可能	-2245
▁吴	-2246
平安	-2247
翅膀	-2248
身子	-2249
角度	-2250
老百姓	-2251
形象	-2252
干活	-2253
冬天	-2254
乌龟	-2255
治疗	-2256
你跟	-2257
▁到时候	-2258
为什么不	-2259
的主	-2260
▁我真的	-2261
少年	-2262
看的	-2263
都被	-2264
每个人	-2265
内部	-2266
这这	-2267
两人	-2268
找你	-2269
出现了	-2270
空中	-2271
放下	-2272
追求	-2273
工业	-2274
▁突然	-2275
躺在	-2276
婆婆	-2277
出现在	-2278
直线	-2279
看你	-2280
就行了	-2281
律师	-2282
在我们	-2283
儿的	-2284
二零一	-2285
善良	-2286
作战	-2287
不怕	-2288
▁你觉得	-2289
光的	-2290
报道	-2291
失望	-2292
热闹	-2293
▁一定要	-2294
不像	-2295
我这个	-2296
15	-2297
生存	-2298
平衡	-2299
边的	-2300
▁爹	-2301
每一个	-2302
招呼	-2303
▁行了	-2304
从来没有	-2305
可不是	-2306
干了	-2307
眼泪	-2308
引起	-2309
工资	-2310
打的	-2311
的一切	-2312
事业	-2313
手上	-2314
着小	-2315
没问题	-2316
题目	-2317
在水	-2318
▁不行	-2319
王爷	-2320
队员	-2321
▁向	-2322
是很	-2323
一辈子	-2324
就是一个	-2325
▁你们俩	-2326
什么样的	-2327
脸上	-2328
因素	-2329
走的	-2330
原谅	-2331
形状	-2332
▁你先	-2333
正确的	-2334
找个	-2335
看得	-2336
▁我没有	-2337
算了	-2338
劳动	-2339
的花	-2340
什么东西	-2341
呢我们	-2342
古代	-2343
有所	-2344
一起去	-2345
价格	-2346
▁第二天	-2347
▁皇上	-2348
兴奋	-2349
想过	-2350
凭什么	-2351
粉丝	-2352
糊涂	-2353
真相	-2354
土壤	-2355
语言	-2356
▁苏	-2357
学的	-2358
温暖	-2359
说这个	-2360
▁带	-2361
叫什么	-2362
同样	-2363
留下来	-2364
回来的	-2365
回了	-2366
▁到了	-2367
呢就	-2368
八路	-2369
笑着	-2370
没办法	-2371
▁就像	-2372
积极	-2373
上课	-2374
看一下	-2375
▁孩子	-2376
看起来	-2377
城里	-2378
型的	-2379
啊那	-2380
▁对不起	-2381
面积	-2382
▁唐	-2383
一路	-2384
合同	-2385
一句话	-2386
中华	-2387
比我	-2388
眼里	-2389
青年	-2390
▁第一	-2391
的方式	-2392
差点	-2393
谢谢你	-2394
对我们	-2395
之下	-2396
▁怎么样	-2397
▁出	-2398
组成	-2399
嘉宾	-2400
因为他	-2401
享受	-2402
干的	-2403
气的	-2404
理想	-2405
▁作为	-2406
男子	-2407
女孩子	-2408
他了	-2409
事儿啊	-2410
▁它们	-2411
▁除了	-2412
▁西	-2413
我跟你说	-2414
是从	-2415
强的	-2416
▁你你	-2417
部门	-2418
婚姻	-2419
▁好吧	-2420
我先	-2421
超过	-2422
▁你能	-2423
就行	-2424
内心	-2425
婚礼	-2426
11	-2427
和他	-2428
哪些	-2429
不要再	-2430
病人	-2431
羽毛	-2432
▁那些	-2433
称为	-2434
出去了	-2435
下一	-2436
萝卜	-2437
还有什么	-2438
的新	-2439
数字	-2440
不信	-2441
床上	-2442
▁老师	-2443
做饭	-2444
▁有一天	-2445
逐渐	-2446
当地	-2447
▁喂	-2448
还是要	-2449
怎么样了	-2450
儿啊	-2451
▁如今	-2452
之外	-2453
穿着	-2454
超级	-2455
▁你有	-2456
拿出	-2457
好好地	-2458
▁项	-2459
两只	-2460
大海	-2461
监控	-2462
都说	-2463
▁那天	-2464
有一种	-2465
▁每天	-2466
▁由于	-2467
跟您	-2468
战士	-2469
允许	-2470
国外	-2471
智能	-2472
我才	-2473
▁你这个	-2474
尸体	-2475
刺猬	-2476
耽误	-2477
▁看看	-2478
你给我	-2479
在一个	-2480
的发展	-2481
下来了	-2482
我也是	-2483
▁你就是	-2484
就想	-2485
▁姐	-2486
是想	-2487
回去了	-2488
来得	-2489
就开始	-2490
跟他们	-2491
电流	-2492
都知道	-2493
适应	-2494
▁钱	-2495
做一个	-2496
命运	-2497
气体	-2498
▁好好	-2499
不变	-2500
都得	-2501
状况	-2502
女士	-2503
往前	-2504
别人的	-2505
主持	-2506
电子	-2507
为我	-2508
就是你	-2509
两年	-2510
对她	-2511
开放	-2512
几次	-2513
▁他说	-2514
嫌疑人	-2515
一份	-2516
不是你	-2517
但是我	-2518
更好	-2519
心想	-2520
五百	-2521
邻居	-2522
银子	-2523
啊啊	-2524
推荐	-2525
朝廷	-2526
群众	-2527
▁毕竟	-2528
▁我给你	-2529
可真	-2530
描述	-2531
大姐	-2532
▁我希望	-2533
太好了	-2534
是是	-2535
非要	-2536
把小	-2537
的有	-2538
▁我得	-2539
失去	-2540
树林	-2541
这么做	-2542
春天	-2543
回去吧	-2544
或许	-2545
零零	-2546
羡慕	-2547
过我	-2548
院长	-2549
一名	-2550
平常	-2551
有事	-2552
的原因	-2553
公安	-2554
天上	-2555
里头	-2556
反映	-2557
会的	-2558
在他	-2559
欧洲	-2560
的这种	-2561
损失	-2562
演的	-2563
这场	-2564
同学们	-2565
▁那我就	-2566
呀我	-2567
用于	-2568
八十	-2569
进攻	-2570
巨大的	-2571
你觉得	-2572
得多	-2573
委员	-2574
帽子	-2575
行不行	-2576
情感	-2577
用来	-2578
一旦	-2579
合理	-2580
拥有	-2581
她是	-2582
到这个	-2583
口气	-2584
始终	-2585
成长	-2586
山的	-2587
娃娃	-2588
竞争	-2589
▁朕	-2590
一段	-2591
到这儿	-2592
的影响	-2593
学院	-2594
闺女	-2595
▁你可以	-2596
刺激	-2597
笑了	-2598
▁马上	-2599
之内	-2600
八年	-2601
还好	-2602
出生	-2603
听听	-2604
和平	-2605
里面的	-2606
等待	-2607
我也不	-2608
长官	-2609
▁到底	-2610
旅游	-2611
开车	-2612
妈妈的	-2613
行业	-2614
全球	-2615
我们现在	-2616
神秘	-2617
渐渐	-2618
等你	-2619
▁少	-2620
此时	-2621
感兴趣	-2622
媳妇儿	-2623
▁文	-2624
难过	-2625
▁无论	-2626
宣布	-2627
你不是	-2628
司机	-2629
恭喜	-2630
大事	-2631
消费	-2632
联合	-2633
争取	-2634
分享	-2635
▁你以为	-2636
吓得	-2637
心了	-2638
▁我只是	-2639
▁通过	-2640
有意思	-2641
同事	-2642
也挺	-2643
威胁	-2644
跳舞	-2645
▁娘	-2646
瞬间	-2647
▁一定	-2648
是指	-2649
面包	-2650
▁拿	-2651
勇敢	-2652
厨房	-2653
了我的	-2654
公公	-2655
▁安	-2656
四年	-2657
▁我来	-2658
兄弟们	-2659
清楚了	-2660
▁我们要	-2661
▁然而	-2662
开玩笑	-2663
老头	-2664
▁晚上	-2665
设备	-2666
▁我只	-2667
你再	-2668
嘴里	-2669
要不然	-2670
常常	-2671
成熟	-2672
江湖	-2673
了嘛	-2674
▁光	-2675
▁解	-2676
很少	-2677
团队	-2678
▁我不想	-2679
▁当年	-2680
把他们	-2681
的嘛	-2682
不久	-2683
的就	-2684
的朋友	-2685
一点点	-2686
问我	-2687
踏实	-2688
士兵	-2689
醒了	-2690
转移	-2691
这不	-2692
▁有人	-2693
▁万一	-2694
他会	-2695
AB	-2696
▁我能	-2697
▁这是我	-2698
说要	-2699
难以	-2700
锻炼	-2701
在家里	-2702
▁我相信	-2703
好奇	-2704
山上	-2705
哈哈哈	-2706
全是	-2707
原则	-2708
▁家	-2709
▁方	-2710
场的	-2711
接近	-2712
营养	-2713
生病	-2714
都不会	-2715
▁让你	-2716
人哪	-2717
浪费	-2718
想去	-2719
▁看到	-2720
在哪里	-2721
都不知道	-2722
重点	-2723
原本	-2724
就是个	-2725
酒店	-2726
劲儿	-2727
问一下	-2728
在一	-2729
邀请	-2730
打听	-2731
▁咱俩	-2732
七十	-2733
的时候我	-2734
一个大	-2735
回忆	-2736
来讲	-2737
的他	-2738
点点	-2739
的风	-2740
游泳	-2741
▁让他	-2742
肯定会	-2743
卫生	-2744
碰到	-2745
明的	-2746
在看	-2747
是由	-2748
在那儿	-2749
无关	-2750
公平	-2751
首歌	-2752
丫头	-2753
期间	-2754
报仇	-2755
小朋友	-2756
为何	-2757
我吗	-2758
孙子	-2759
伙子	-2760
▁经过	-2761
上下	-2762
力气	-2763
污染	-2764
一眼	-2765
到达	-2766
年代	-2767
传说	-2768
白的	-2769
一人	-2770
的路	-2771
干什么呀	-2772
是大	-2773
二位	-2774
的前	-2775
▁子	-2776
对付	-2777
机关	-2778
我不知道	-2779
创新	-2780
大会	-2781
承担	-2782
▁黑	-2783
神奇	-2784
民主	-2785
男生	-2786
采访	-2787
分手	-2788
帝国	-2789
台上	-2790
贵的	-2791
任何人	-2792
及时	-2793
小猪	-2794
说她	-2795
▁故	-2796
特务	-2797
七年	-2798
你把	-2799
▁你这是	-2800
处长	-2801
成这样	-2802
部的	-2803
陪你	-2804
▁俺	-2805
一半	-2806
欣赏	-2807
真心	-2808
你得	-2809
▁甚至	-2810
丢了	-2811
冷静	-2812
的主要	-2813
▁夏	-2814
吧啊	-2815
的重要	-2816
打扰	-2817
▁宋	-2818
重的	-2819
最喜欢	-2820
愿望	-2821
特意	-2822
▁国王	-2823
▁就在	-2824
一根	-2825
乌鸦	-2826
喝了	-2827
广告	-2828
我们可以	-2829
我对	-2830
调整	-2831
不能再	-2832
她就	-2833
我今天	-2834
安静	-2835
跟你们	-2836
五个	-2837
过得	-2838
对啊	-2839
森林里	-2840
金属	-2841
工厂	-2842
表面	-2843
吩咐	-2844
的位置	-2845
离开了	-2846
六年	-2847
教训	-2848
青春	-2849
开门	-2850
蜜蜂	-2851
葡萄	-2852
一个月	-2853
性命	-2854
累了	-2855
特别的	-2856
社会主义	-2857
操作	-2858
断了	-2859
掌柜	-2860
▁我再	-2861
不错的	-2862
胡子	-2863
两百	-2864
今日	-2865
不定	-2866
自信	-2867
给我的	-2868
令人	-2869
的过程	-2870
知道你	-2871
最高	-2872
物理	-2873
没事儿	-2874
规则	-2875
有问题	-2876
旅行	-2877
都快	-2878
明确	-2879
▁关于	-2880
▁你把	-2881
心疼	-2882
规模	-2883
玩意	-2884
女主	-2885
▁风	-2886
开的	-2887
干吗呀	-2888
动的	-2889
车的	-2890
度的	-2891
是非常	-2892
屁股	-2893
一听	-2894
加强	-2895
了下来	-2896
你呀	-2897
没有办法	-2898
晚了	-2899
西方	-2900
慢慢地	-2901
他还	-2902
遗憾	-2903
▁你去	-2904
区域	-2905
▁同时	-2906
毛病	-2907
博士	-2908
反对	-2909
是对	-2910
▁所有	-2911
体验	-2912
听说过	-2913
给它	-2914
▁我还是	-2915
我呢	-2916
多多	-2917
岩石	-2918
稍微	-2919
▁哎呦	-2920
▁能够	-2921
坐下	-2922
哭了	-2923
一座	-2924
科长	-2925
然后就	-2926
我很	-2927
权利	-2928
盯着	-2929
我国	-2930
另一个	-2931
重庆	-2932
▁这事儿	-2933
当成	-2934
保险	-2935
这个时候	-2936
你听	-2937
▁那就是	-2938
动物们	-2939
▁两个	-2940
特别好	-2941
蛋糕	-2942
两句	-2943
利于	-2944
吃点	-2945
18	-2946
他要	-2947
爸妈	-2948
又不	-2949
取得	-2950
各个	-2951
科学家	-2952
发布	-2953
头的	-2954
处的	-2955
符合题意	-2956
很多的	-2957
你不要	-2958
心思	-2959
花园	-2960
不足	-2961
们儿	-2962
到你	-2963
身上的	-2964
伯伯	-2965
实施	-2966
文学	-2967
骄傲	-2968
就不会	-2969
的歌	-2970
一段时间	-2971
或者是	-2972
死者	-2973
飞行	-2974
好意思	-2975
那就是	-2976
破了	-2977
一想	-2978
▁本题考查	-2979
就别	-2980
▁有些	-2981
现在是	-2982
数学	-2983
越大	-2984
弟兄	-2985
不见了	-2986
我家	-2987
数量	-2988
这两个	-2989
内的	-2990
微信	-2991
▁小熊	-2992
了出来	-2993
必须得	-2994
员工	-2995
观点	-2996
一开始	-2997
上有	-2998
法国	-2999
的方法	-3000
▁东	-3001
受了	-3002
打仗	-3003
的确	-3004
看见了	-3005
放过	-3006
资格	-3007
不明白	-3008
啊他	-3009
地问	-3010
对着	-3011
两种	-3012
说吧	-3013
几个人	-3014
个儿	-3015
的名	-3016
法院	-3017
送你	-3018
我告诉你	-3019
假的	-3020
吸收	-3021
咱们的	-3022
▁难	-3023
安慰	-3024
事故	-3025
这一切	-3026
在地	-3027
充分	-3028
好像是	-3029
信心	-3030
理论	-3031
一时	-3032
需求	-3033
第二天	-3034
▁外	-3035
哪有	-3036
求求	-3037
的长	-3038
含有	-3039
地位	-3040
水果	-3041
老实	-3042
让你们	-3043
够了	-3044
他他	-3045
细节	-3046
个小	-3047
▁首先	-3048
纷纷	-3049
轻松	-3050
一千	-3051
为难	-3052
仿佛	-3053
我把	-3054
▁恐怕	-3055
白天	-3056
人是	-3057
往往	-3058
平均	-3059
智慧	-3060
远远	-3061
不需要	-3062
双方	-3063
开会	-3064
名叫	-3065
慢点	-3066
树叶	-3067
▁我记得	-3068
公里	-3069
赢了	-3070
避免	-3071
不小心	-3072
付出	-3073
啊就	-3074
▁美	-3075
规律	-3076
宣传	-3077
经营	-3078
客户	-3079
我叫	-3080
村民	-3081
一面	-3082
十万	-3083
贡献	-3084
校长	-3085
什么样	-3086
▁孙	-3087
吧你	-3088
▁他在	-3089
还不错	-3090
▁臣	-3091
▁爱	-3092
体积	-3093
绿色	-3094
花的	-3095
我可	-3096
董事长	-3097
你们家	-3098
老家	-3099
从而	-3100
这个问题	-3101
中午	-3102
本书	-3103
这时	-3104
物的	-3105
如果你	-3106
一杯	-3107
方程	-3108
▁北	-3109
蘑菇	-3110
重大	-3111
皇后	-3112
方面的	-3113
▁其	-3114
惊喜	-3115
功夫	-3116
神经	-3117
接到	-3118
无聊	-3119
集中	-3120
参谋	-3121
热情	-3122
▁另外	-3123
▁感觉	-3124
玩具	-3125
资金	-3126
鸭子	-3127
题干	-3128
家族	-3129
急忙	-3130
▁分	-3131
自我	-3132
就是在	-3133
还是很	-3134
▁我们是	-3135
知不知道	-3136
不让	-3137
▁熊	-3138
你我	-3139
不是很	-3140
对呀	-3141
▁我先	-3142
这一次	-3143
十三	-3144
之所以	-3145
有请	-3146
啊这个	-3147
不是说	-3148
▁你看看	-3149
发了	-3150
▁因为我	-3151
▁罗	-3152
刚好	-3153
两次	-3154
看我	-3155
不吃	-3156
开始了	-3157
▁秦	-3158
暴露	-3159
▁你说我	-3160
来不及	-3161
太多了	-3162
坐坐	-3163
赚钱	-3164
替我	-3165
确实是	-3166
给你的	-3167
▁来来来	-3168
抱着	-3169
这样一个	-3170
替你	-3171
▁第	-3172
玫瑰	-3173
马上就	-3174
半夜	-3175
来着	-3176
▁我可	-3177
成就	-3178
什么事儿	-3179
蛋白	-3180
里有	-3181
城的	-3182
帮他	-3183
▁大人	-3184
的气	-3185
▁终于	-3186
舍不得	-3187
好事	-3188
带领	-3189
新鲜	-3190
▁时间	-3191
好人	-3192
件事	-3193
望着	-3194
要把	-3195
好玩	-3196
攻击	-3197
▁沈	-3198
▁相	-3199
不清	-3200
▁她们	-3201
的结果	-3202
保密	-3203
完整	-3204
彼此	-3205
小小的	-3206
手段	-3207
道路	-3208
函数	-3209
100	-3210
指导	-3211
大爷	-3212
对象	-3213
有机会	-3214
吗我	-3215
打击	-3216
放了	-3217
网球	-3218
他又	-3219
文字	-3220
已经被	-3221
的时候就	-3222
媒体	-3223
互联	-3224
▁哦哦	-3225
尽量	-3226
灰狼	-3227
公鸡	-3228
什么地方	-3229
农村	-3230
测试	-3231
草原	-3232
啊就是	-3233
车上	-3234
遇到了	-3235
▁师	-3236
娱乐	-3237
你还是	-3238
工人	-3239
的美	-3240
▁自从	-3241
决心	-3242
鼓励	-3243
去世	-3244
想了	-3245
表情	-3246
给自己	-3247
华为	-3248
没法	-3249
不舒服	-3250
发展的	-3251
不大	-3252
全面	-3253
比你	-3254
笑话	-3255
级的	-3256
带来了	-3257
▁对了	-3258
大量	-3259
▁可是我	-3260
了一会儿	-3261
▁奶奶	-3262
优势	-3263
魔法	-3264
准备好了	-3265
他也	-3266
爆炸	-3267
岁的	-3268
显得	-3269
红色	-3270
这孩子	-3271
我啊	-3272
30	-3273
三角	-3274
▁从此	-3275
他就是	-3276
那个人	-3277
继承	-3278
▁很多	-3279
商业	-3280
意思是	-3281
▁电	-3282
谁呀	-3283
一共	-3284
因为你	-3285
进一步	-3286
的是什么	-3287
又要	-3288
密码	-3289
班长	-3290
软件	-3291
重视	-3292
化的	-3293
吵架	-3294
收入	-3295
监狱	-3296
这么一	-3297
资本	-3298
▁你再	-3299
得意	-3300
有趣	-3301
子啊	-3302
对我的	-3303
▁九	-3304
▁清	-3305
请求	-3306
停止	-3307
氧气	-3308
显示	-3309
说完	-3310
早晨	-3311
外国	-3312
采取	-3313
▁唉	-3314
演技	-3315
NBA	-3316
把握	-3317
物体的	-3318
▁我们现在	-3319
▁我听	-3320
的名字	-3321
位于	-3322
对这个	-3323
好处	-3324
练习	-3325
身的	-3326
在地上	-3327
▁我一直	-3328
月球	-3329
一部	-3330
保安	-3331
机械	-3332
舞蹈	-3333
厕所	-3334
各自	-3335
等到	-3336
强大	-3337
在外面	-3338
▁是你	-3339
共党	-3340
▁我不知道	-3341
前来	-3342
▁否则	-3343
是小	-3344
▁我妈	-3345
你这样	-3346
找一个	-3347
说的话	-3348
个月	-3349
的天	-3350
▁叶	-3351
是你的	-3352
传递	-3353
农业	-3354
掌声	-3355
行啊	-3356
▁徐	-3357
▁人们	-3358
猎人	-3359
不该	-3360
▁国	-3361
山羊	-3362
▁给你	-3363
心地	-3364
抓紧	-3365
拼命	-3366
不应该	-3367
例如	-3368
得起	-3369
烈的	-3370
不许	-3371
深刻	-3372
打球	-3373
模式	-3374
全世界	-3375
▁诶	-3376
一颗	-3377
手下	-3378
随后	-3379
▁军	-3380
这么一个	-3381
▁成	-3382
战场	-3383
▁各位	-3384
过分	-3385
高度	-3386
已知	-3387
自行	-3388
▁当初	-3389
乒乓	-3390
受不了	-3391
系列	-3392
不但	-3393
进行了	-3394
又有	-3395
废话	-3396
怎么回事	-3397
吃完	-3398
我们都	-3399
▁我不会	-3400
眼镜	-3401
子了	-3402
▁关	-3403
强调	-3404
▁我刚才	-3405
这么大的	-3406
▁跟我	-3407
最重要	-3408
在那	-3409
玩儿	-3410
街上	-3411
▁有没有	-3412
来吧	-3413
▁我怕	-3414
我跟你	-3415
发的	-3416
问他	-3417
性质	-3418
没看	-3419
走进	-3420
过来的	-3421
领域	-3422
封信	-3423
再也不	-3424
交易	-3425
生活的	-3426
绝对不会	-3427
直播	-3428
移动	-3429
非得	-3430
海洋	-3431
▁我把	-3432
这份	-3433
产业	-3434
▁韩	-3435
创作	-3436
家长	-3437
生活中	-3438
你那	-3439
哎呦	-3440
怎么可能	-3441
▁刚刚	-3442
放到	-3443
红军	-3444
做过	-3445
等一下	-3446
下手	-3447
在我的	-3448
我们这个	-3449
窗户	-3450
▁朱	-3451
眼神	-3452
着一个	-3453
女排	-3454
平台	-3455
箱子	-3456
胡说	-3457
▁上次	-3458
西瓜	-3459
▁其实我	-3460
画面	-3461
回家了	-3462
千万不要	-3463
所以我	-3464
陪我	-3465
互联网	-3466
严格	-3467
河边	-3468
创业	-3469
红的	-3470
间的	-3471
▁狐狸	-3472
22	-3473
来啊	-3474
那么大	-3475
有效	-3476
失踪	-3477
▁我真	-3478
没有任何	-3479
就不能	-3480
提升	-3481
长大了	-3482
轻易	-3483
欧阳	-3484
充满	-3485
对待	-3486
知道我	-3487
这个样子	-3488
▁回	-3489
一顿	-3490
卫星	-3491
黄金	-3492
到大	-3493
就很	-3494
这些东西	-3495
战略	-3496
▁毛	-3497
区别	-3498
男的	-3499
长期	-3500
入了	-3501
报纸	-3502
他自己	-3503
的儿子	-3504
只见	-3505
干部	-3506
▁我也不	-3507
幼儿	-3508
影子	-3509
14	-3510
向你	-3511
全力	-3512
地点	-3513
毫无	-3514
▁再说	-3515
▁那那	-3516
▁还要	-3517
▁江	-3518
演出	-3519
小说	-3520
沟通	-3521
在里面	-3522
相处	-3523
统治	-3524
骨头	-3525
你就是	-3526
已经是	-3527
听着	-3528
树枝	-3529
玉米	-3530
太后	-3531
买卖	-3532
措施	-3533
降低	-3534
共军	-3535
打得	-3536
向前	-3537
好吃的	-3538
你是不是	-3539
▁说完	-3540
▁能不能	-3541
亲爱的	-3542
打死	-3543
今儿	-3544
土匪	-3545
不停地	-3546
七八	-3547
输了	-3548
不就是	-3549
线的	-3550
意味	-3551
▁我要是	-3552
好久	-3553
▁我们家	-3554
▁八	-3555
子弹	-3556
13	-3557
折腾	-3558
这点	-3559
十九	-3560
▁他就	-3561
尝尝	-3562
高中	-3563
▁师父	-3564
小花	-3565
醒来	-3566
我不想	-3567
这个东西	-3568
佩服	-3569
时光	-3570
长了	-3571
▁南	-3572
▁除	-3573
▁我说你	-3574
这话	-3575
为他	-3576
你不能	-3577
告诉他	-3578
大伙	-3579
广州	-3580
的消息	-3581
▁我叫	-3582
▁我们就	-3583
一分	-3584
第二个	-3585
▁我们俩	-3586
植物的	-3587
更好的	-3588
微博	-3589
生死	-3590
勇气	-3591
放松	-3592
▁这事	-3593
他有	-3594
早已	-3595
一万	-3596
我又	-3597
▁不然	-3598
月二十	-3599
是被	-3600
环节	-3601
做个	-3602
救命	-3603
地面	-3604
也都	-3605
些什么	-3606
件事情	-3607
往后	-3608
▁至于	-3609
▁青	-3610
持续	-3611
▁你还是	-3612
老子	-3613
阻止	-3614
手指	-3615
地去	-3616
涉及	-3617
真好	-3618
一个个	-3619
倒了	-3620
不相信	-3621
问道	-3622
你和	-3623
花钱	-3624
重力	-3625
▁非常	-3626
信号	-3627
最后一	-3628
说的是	-3629
不算	-3630
核心	-3631
生成	-3632
这两	-3633
足够	-3634
觉得自己	-3635
转化	-3636
▁陆	-3637
大部分	-3638
带来的	-3639
拿出来	-3640
▁怕	-3641
好几	-3642
精灵	-3643
而不是	-3644
设计师	-3645
▁你不要	-3646
会在	-3647
你没	-3648
带走	-3649
燕子	-3650
遗传	-3651
维持	-3652
介石	-3653
一群	-3654
妖怪	-3655
一定的	-3656
▁对对对	-3657
洞里	-3658
突破	-3659
这就	-3660
你说的	-3661
动力	-3662
▁我爸	-3663
琢磨	-3664
还想	-3665
听到了	-3666
即使	-3667
坐着	-3668
维护	-3669
16	-3670
啊是	-3671
大地	-3672
▁下面	-3673
▁只能	-3674
亲戚	-3675
火箭	-3676
三位	-3677
保障	-3678
的人都	-3679
十几	-3680
多数	-3681
无人	-3682
泽东	-3683
知道的	-3684
有着	-3685
一家人	-3686
拿起	-3687
放大	-3688
▁其中	-3689
吗你	-3690
得上	-3691
小鸟	-3692
开发	-3693
▁姐姐	-3694
▁这回	-3695
▁必须	-3696
一生	-3697
机器人	-3698
根本就	-3699
谢谢谢谢	-3700
另一	-3701
地里	-3702
蒋介石	-3703
报警	-3704
权力	-3705
的一项	-3706
失去了	-3707
就是他	-3708
公园	-3709
处于	-3710
教室	-3711
待会儿	-3712
即将	-3713
▁你会	-3714
他能	-3715
文件	-3716
犹豫	-3717
唯一的	-3718
双手	-3719
脖子	-3720
来来来	-3721
起码	-3722
爱你	-3723
藏在	-3724
连忙	-3725
大象	-3726
派出	-3727
▁小姐	-3728
▁我不能	-3729
▁龙	-3730
经典	-3731
▁心	-3732
王的	-3733
乒乓球	-3734
惩罚	-3735
的车	-3736
不同意	-3737
都不能	-3738
下落	-3739
传来	-3740
把我们	-3741
一号	-3742
不肯	-3743
的分	-3744
用啊	-3745
你们两个	-3746
人才	-3747
场比赛	-3748
十六	-3749
卖了	-3750
怀孕	-3751
▁哎你	-3752
就是要	-3753
▁丁	-3754
站长	-3755
▁我跟你	-3756
年了	-3757
表明	-3758
评价	-3759
过你	-3760
睡着了	-3761
政委	-3762
很好的	-3763
在外	-3764
水中	-3765
穿上	-3766
的速度	-3767
军人	-3768
最多	-3769
很重要	-3770
动静	-3771
感觉到	-3772
仅仅	-3773
大家的	-3774
恐怖	-3775
懂得	-3776
回到了	-3777
▁你为什么	-3778
▁包括	-3779
北平	-3780
他妈	-3781
整整	-3782
了什么	-3783
原来的	-3784
京城	-3785
口袋	-3786
吃吧	-3787
同志们	-3788
说不定	-3789
▁公主	-3790
着她	-3791
靠近	-3792
前的	-3793
说呀	-3794
▁先生	-3795
批评	-3796
我们也	-3797
有一点	-3798
个好	-3799
从此	-3800
决赛	-3801
小兔	-3802
的光	-3803
单独	-3804
收获	-3805
让它	-3806
走去	-3807
的作用	-3808
▁你今天	-3809
▁胡	-3810
展开	-3811
家乡	-3812
更是	-3813
就是想	-3814
回事啊	-3815
相等	-3816
开口	-3817
蜗牛	-3818
▁春	-3819
考察	-3820
驾驶	-3821
▁接着	-3822
只会	-3823
就跟	-3824
快去	-3825
地把	-3826
幼儿园	-3827
▁你得	-3828
花了	-3829
是这个	-3830
▁武	-3831
看他	-3832
▁不知	-3833
出一个	-3834
的不是	-3835
麻雀	-3836
▁阿姨	-3837
铁路	-3838
到这里	-3839
宿舍	-3840
贸易	-3841
我就不	-3842
塑料	-3843
小小	-3844
面临	-3845
有多少	-3846
为止	-3847
走路	-3848
定义	-3849
概念	-3850
厉害的	-3851
做事	-3852
亲手	-3853
玩意儿	-3854
▁你给我	-3855
伺候	-3856
成分	-3857
▁好的	-3858
▁太阳	-3859
得这么	-3860
▁你自己	-3861
出手	-3862
原理	-3863
你要是	-3864
了还	-3865
指示	-3866
觉得很	-3867
往下	-3868
一会	-3869
危机	-3870
谈恋爱	-3871
桌子	-3872
做法	-3873
神仙	-3874
能源	-3875
村里	-3876
▁她的	-3877
你妈	-3878
再去	-3879
便是	-3880
姥姥	-3881
氧化碳	-3882
的第一	-3883
蜘蛛	-3884
紧紧	-3885
▁目前	-3886
的但是	-3887
完美	-3888
收到	-3889
举行	-3890
来源	-3891
销售	-3892
NA	-3893
一日	-3894
像是	-3895
你这是	-3896
百万	-3897
人心	-3898
幸运	-3899
▁那他	-3900
博物	-3901
家了	-3902
▁我才	-3903
老太太	-3904
秘书	-3905
这一点	-3906
奥运	-3907
带上	-3908
▁一切	-3909
连续	-3910
得到了	-3911
多个	-3912
赶到	-3913
▁干	-3914
不远	-3915
侦查	-3916
确保	-3917
运输	-3918
非常地	-3919
喜欢吃	-3920
昨天晚上	-3921
周期	-3922
喝点	-3923
苏联	-3924
▁二十	-3925
都想	-3926
告诉我们	-3927
▁谢	-3928
每年	-3929
以上	-3930
绳子	-3931
怎么办呢	-3932
之人	-3933
们的	-3934
动机	-3935
改造	-3936
两条	-3937
四处	-3938
落在	-3939
两千	-3940
三个人	-3941
结束了	-3942
这个是	-3943
姑姑	-3944
未来的	-3945
印度	-3946
所在	-3947
背景	-3948
临时	-3949
使得	-3950
广播	-3951
形的	-3952
▁我又	-3953
我不能	-3954
乖乖	-3955
同一	-3956
形容	-3957
惊讶	-3958
怎么做	-3959
的新闻	-3960
是这样的	-3961
大树	-3962
拍摄	-3963
啊我们	-3964
完成了	-3965
弟子	-3966
护士	-3967
电路	-3968
现在已经	-3969
一致	-3970
增大	-3971
女性	-3972
也被	-3973
▁怎么了	-3974
白色	-3975
没事吧	-3976
什么事情	-3977
的人生	-3978
▁眼	-3979
餐厅	-3980
确认	-3981
你应该	-3982
为人	-3983
去过	-3984
无数	-3985
运气	-3986
大叔	-3987
点了	-3988
斗争	-3989
的说	-3990
尝试	-3991
他们在	-3992
你看看	-3993
很不	-3994
感激	-3995
美女	-3996
▁我们在	-3997
变了	-3998
留着	-3999
▁这天	-4000
频率	-4001
▁这件事情	-4002
小学	-4003
好好的	-4004
作者	-4005
开枪	-4006
▁你说这	-4007
带到	-4008
德国	-4009
总统	-4010
那只	-4011
一下吧	-4012
一起来	-4013
会被	-4014
▁就这样	-4015
可就	-4016
王后	-4017
使劲	-4018
小猴	-4019
联络	-4020
呢他	-4021
促进	-4022
进去了	-4023
多大	-4024
道的	-4025
25	-4026
不听	-4027
人间	-4028
▁你到底	-4029
怎么着	-4030
这样的话	-4031
马上就要	-4032
了不起	-4033
这部电影	-4034
▁莫	-4035
体系	-4036
大师	-4037
有关系	-4038
的都是	-4039
不住了	-4040
偶像	-4041
八路军	-4042
得罪	-4043
浑身	-4044
剩下的	-4045
展示	-4046
深深	-4047
祖国	-4048
他去	-4049
国足	-4050
螃蟹	-4051
所谓的	-4052
长安	-4053
厉害了	-4054
也想	-4055
亮的	-4056
夜里	-4057
今天晚上	-4058
挣钱	-4059
那我们	-4060
月的	-4061
▁兄弟	-4062
挺好	-4063
有这个	-4064
▁玉	-4065
二人	-4066
▁整个	-4067
对你的	-4068
我感觉	-4069
的世界	-4070
当了	-4071
拿了	-4072
此事	-4073
王朝	-4074
申请	-4075
的情况下	-4076
释放	-4077
发明	-4078
考验	-4079
制的	-4080
后果	-4081
▁你真的	-4082
▁牛	-4083
饭店	-4084
好不容易	-4085
得住	-4086
这回	-4087
上午	-4088
磁铁	-4089
好看的	-4090
▁于	-4091
九年	-4092
▁生	-4093
夏天	-4094
第四	-4095
跑步	-4096
▁学	-4097
下班	-4098
没有啊	-4099
要不要	-4100
▁要不是	-4101
人口	-4102
游击	-4103
个大	-4104
▁看着	-4105
下来的	-4106
电荷	-4107
他们俩	-4108
南方	-4109
对吗	-4110
商人	-4111
试验	-4112
镜子	-4113
怎么样啊	-4114
▁真的是	-4115
请您	-4116
财产	-4117
▁小白	-4118
好好好	-4119
▁这可是	-4120
着的	-4121
给人	-4122
所有人	-4123
这些人	-4124
汉奸	-4125
自杀	-4126
中了	-4127
就是因为	-4128
你快	-4129
▁你没	-4130
一头	-4131
冤枉	-4132
做生意	-4133
▁如	-4134
中有	-4135
师长	-4136
这个这个	-4137
对小	-4138
业务	-4139
▁晓	-4140
错误的	-4141
纪念	-4142
二哥	-4143
冒险	-4144
带你	-4145
身后	-4146
屋子	-4147
请问	-4148
赛季	-4149
就知道	-4150
在中国	-4151
罗斯	-4152
▁需要	-4153
人吗	-4154
弄得	-4155
山东	-4156
救了	-4157
仓库	-4158
巫婆	-4159
其实是	-4160
机构	-4161
风险	-4162
庆祝	-4163
珍珠	-4164
把那个	-4165
大臣	-4166
想吃	-4167
偶尔	-4168
紧急	-4169
父王	-4170
诗人	-4171
看不见	-4172
儿童	-4173
可爱的	-4174
▁按照	-4175
美好的	-4176
半年	-4177
叫你	-4178
母鸡	-4179
▁一旦	-4180
优秀的	-4181
这张	-4182
集合	-4183
▁算	-4184
他俩	-4185
就是为了	-4186
少了	-4187
给小	-4188
美好	-4189
▁日	-4190
聊聊	-4191
陌生	-4192
▁有一个	-4193
得不	-4194
就是我们	-4195
没见过	-4196
就是这样	-4197
▁你们两个	-4198
喜剧	-4199
成员	-4200
燃烧	-4201
投入	-4202
这个地方	-4203
也别	-4204
你又	-4205
浪漫	-4206
下山	-4207
快速	-4208
▁美国	-4209
久了	-4210
点评	-4211
▁你又	-4212
▁依	-4213
我们去	-4214
杭州	-4215
百年	-4216
▁那您	-4217
忍不住	-4218
▁这个人	-4219
我真	-4220
皮肤	-4221
介绍一下	-4222
模样	-4223
而来	-4224
这只	-4225
门的	-4226
不可以	-4227
我吧	-4228
这个小	-4229
到来	-4230
意的	-4231
杀死	-4232
就已经	-4233
▁家里	-4234
看到的	-4235
艰难	-4236
一道	-4237
讲究	-4238
▁老爷	-4239
一定能	-4240
团结	-4241
笨笨	-4242
▁姑娘	-4243
▁老板	-4244
去去	-4245
吃过	-4246
说着	-4247
风格	-4248
▁可不是	-4249
罢了	-4250
▁六	-4251
▁发	-4252
你爸	-4253
的女人	-4254
两口	-4255
洗澡	-4256
这里的	-4257
▁包	-4258
乡亲	-4259
吃啊	-4260
坚决	-4261
结论	-4262
顺序	-4263
所学	-4264
消灭	-4265
▁正好	-4266
▁那你就	-4267
香味	-4268
珍惜	-4269
一动	-4270
在乎	-4271
法官	-4272
的山	-4273
豆腐	-4274
把那	-4275
梅西	-4276
温柔	-4277
组合	-4278
▁这儿	-4279
摇头	-4280
▁应该是	-4281
扩大	-4282
抗战	-4283
是中国	-4284
都是我	-4285
几十	-4286
多次	-4287
什么都不	-4288
▁女	-4289
向我	-4290
这才	-4291
不认识	-4292
24	-4293
亲人	-4294
风吹	-4295
为主	-4296
分开	-4297
姐夫	-4298
至今	-4299
痕迹	-4300
鸟儿	-4301
一棵	-4302
是没有	-4303
交给你	-4304
到我们	-4305
看一看	-4306
▁假	-4307
喜欢你	-4308
来看看	-4309
这是一个	-4310
见他	-4311
跑去	-4312
不了解	-4313
夜晚	-4314
她在	-4315
我听	-4316
▁按	-4317
翻译	-4318
胳膊	-4319
舅舅	-4320
辆车	-4321
▁其他	-4322
的衣服	-4323
全身	-4324
前往	-4325
路过	-4326
协议	-4327
向上	-4328
防止	-4329
的能力	-4330
服装	-4331
▁每次	-4332
形势	-4333
沙漠	-4334
小组	-4335
为什么会	-4336
整体	-4337
陪伴	-4338
▁会不会	-4339
▁七	-4340
先去	-4341
对对对	-4342
倒霉	-4343
另外一个	-4344
50	-4345
西北	-4346
非常好	-4347
怎么这么	-4348
说出	-4349
▁果然	-4350
地看着	-4351
▁咋	-4352
们都	-4353
打架	-4354
它们的	-4355
阅读	-4356
▁你和	-4357
的大小	-4358
的女儿	-4359
来得及	-4360
那个小	-4361
我一直	-4362
店里	-4363
▁平时	-4364
什么人	-4365
自个儿	-4366
水分	-4367
打篮球	-4368
根本就不	-4369
外婆	-4370
他现在	-4371
就是这个	-4372
用手	-4373
▁嘿	-4374
居民	-4375
立马	-4376
▁我当时	-4377
人就	-4378
在小	-4379
只不过	-4380
在那里	-4381
有的时候	-4382
我做	-4383
▁是啊我	-4384
▁哈哈哈哈	-4385
的变化	-4386
还不是	-4387
待着	-4388
实践	-4389
这句话	-4390
▁因此正确答案是	-4391
其它	-4392
▁我一	-4393
▁让我们	-4394
▁地	-4395
他想	-4396
伤口	-4397
顿时	-4398
▁此时	-4399
打过	-4400
简单的	-4401
品牌	-4402
辞职	-4403
很快就	-4404
的味道	-4405
本领	-4406
爱吃	-4407
人体	-4408
拉着	-4409
的情	-4410
韩国	-4411
▁死	-4412
分布	-4413
北方	-4414
说那	-4415
▁这就	-4416
▁万	-4417
▁秋	-4418
▁郑	-4419
之事	-4420
下去了	-4421
真是太	-4422
守护	-4423
打工	-4424
▁请问	-4425
代价	-4426
光了	-4427
现在就	-4428
▁云	-4429
剧情	-4430
生了	-4431
这是我	-4432
见你	-4433
见的	-4434
工作的	-4435
我就觉得	-4436
▁同	-4437
走向	-4438
小白兔	-4439
官员	-4440
相比	-4441
走出	-4442
转身	-4443
▁送	-4444
换了	-4445
有什么关系	-4446
办事	-4447
个子	-4448
之地	-4449
推动	-4450
比例	-4451
程序	-4452
打扮	-4453
▁直到	-4454
助理	-4455
法的	-4456
重量	-4457
要做	-4458
▁比如说	-4459
进的	-4460
▁车	-4461
会上	-4462
逃跑	-4463
可能性	-4464
▁我自己	-4465
季节	-4466
都不是	-4467
口水	-4468
穿过	-4469
钱的	-4470
有两个	-4471
▁幸	-4472
仙女	-4473
饺子	-4474
站起来	-4475
小狗	-4476
讲话	-4477
▁它的	-4478
遭遇	-4479
宇宙	-4480
良心	-4481
▁欢迎	-4482
了他们	-4483
fx	-4484
演戏	-4485
还说	-4486
大笑	-4487
平静	-4488
快递	-4489
昨晚	-4490
意味着	-4491
最后的	-4492
大队	-4493
装备	-4494
讲述	-4495
▁我喜欢	-4496
差不	-4497
都给	-4498
我不会	-4499
的质量	-4500
比较喜欢	-4501
伟大	-4502
瞧瞧	-4503
老师的	-4504
▁你能不能	-4505
啥呀	-4506
综合	-4507
顺便	-4508
▁怎么会	-4509
▁话	-4510
中共	-4511
千年	-4512
▁并且	-4513
伤了	-4514
公开	-4515
什么了	-4516
还是有	-4517
下车	-4518
木头	-4519
一带	-4520
答应了	-4521
呈现	-4522
牙齿	-4523
东方	-4524
深入	-4525
▁报告	-4526
宫里	-4527
年轻的	-4528
▁你刚才	-4529
发达	-4530
要有	-4531
交给我	-4532
▁加	-4533
▁我知道你	-4534
还是挺	-4535
上山	-4536
老了	-4537
而言	-4538
把我的	-4539
的时候他	-4540
小鱼	-4541
的任务	-4542
▁你不会	-4543
▁你应该	-4544
只有一个	-4545
了一点	-4546
还真是	-4547
的一项是	-4548
之处	-4549
嫁给	-4550
整理	-4551
来接	-4552
爱好	-4553
▁爷爷	-4554
快地	-4555
▁我对	-4556
▁第三	-4557
圆圆	-4558
是的	-4559
▁所以说	-4560
▁所以我们	-4561
ab	-4562
学家	-4563
您是	-4564
了一条	-4565
▁不好意思	-4566
效率	-4567
▁等我	-4568
拜托	-4569
不断地	-4570
这块	-4571
鞋子	-4572
里面有	-4573
司马	-4574
池塘	-4575
区的	-4576
▁这个是	-4577
做梦	-4578
我还有	-4579
▁有时候	-4580
这个事情	-4581
▁什么时候	-4582
下雨	-4583
几位	-4584
▁她是	-4585
祝福	-4586
针对	-4587
团的	-4588
高兴地	-4589
▁许	-4590
叙述	-4591
患者	-4592
这么好	-4593
就是那个	-4594
他一	-4595
▁我听说	-4596
起床	-4597
不得不	-4598
得知	-4599
妈妈说	-4600
千里	-4601
山庄	-4602
谁啊	-4603
传奇	-4604
英语	-4605
把钱	-4606
再也	-4607
手中	-4608
混合	-4609
素质	-4610
胆子	-4611
自行车	-4612
兵力	-4613
心脏	-4614
病毒	-4615
自从	-4616
岁数	-4617
摩擦	-4618
▁那时候	-4619
尴尬	-4620
豆豆	-4621
不通	-4622
走着	-4623
说实话	-4624
奋斗	-4625
就就	-4626
承诺	-4627
男女	-4628
的头	-4629
各种各	-4630
第二次	-4631
医疗	-4632
只有一	-4633
反复	-4634
在此	-4635
看出	-4636
老的	-4637
▁这这	-4638
历史上	-4639
上映	-4640
提到	-4641
数是	-4642
分为	-4643
去买	-4644
人工	-4645
亲眼	-4646
怪我	-4647
被抓	-4648
球迷	-4649
老是	-4650
你放心	-4651
体会	-4652
难度	-4653
那我就	-4654
轨道	-4655
到底是	-4656
别说	-4657
自动	-4658
利的	-4659
▁二零一	-4660
彩虹	-4661
打个电话	-4662
找他	-4663
超市	-4664
▁估计	-4665
▁而是	-4666
犯了	-4667
记载	-4668
下一个	-4669
每天都	-4670
收集	-4671
的电影	-4672
▁我们可以	-4673
说到	-4674
属下	-4675
问题的	-4676
一回	-4677
▁你呀	-4678
三个月	-4679
发射	-4680
不清楚	-4681
这样做	-4682
的外	-4683
和我们	-4684
你吗	-4685
对自己	-4686
我心里	-4687
▁我一定	-4688
有空	-4689
辛苦了	-4690
▁我这个	-4691
担任	-4692
武汉	-4693
讲的	-4694
作为一个	-4695
以外	-4696
大于	-4697
部长	-4698
▁是因为	-4699
获得了	-4700
这也是	-4701
吃饱	-4702
气球	-4703
水里	-4704
他们是	-4705
的表现	-4706
写了	-4707
并非	-4708
性和	-4709
的书	-4710
默默	-4711
没有了	-4712
都不敢	-4713
▁我一定会	-4714
某种	-4715
之类的	-4716
民警	-4717
节奏	-4718
阶级	-4719
为我们	-4720
▁说不定	-4721
人不	-4722
▁我刚	-4723
时机	-4724
多年的	-4725
▁石	-4726
成果	-4727
朵朵	-4728
看不到	-4729
别再	-4730
剧本	-4731
飞到	-4732
▁各	-4733
她了	-4734
有过	-4735
博物馆	-4736
曲线	-4737
远的	-4738
无奈	-4739
让小	-4740
身材	-4741
▁大家都	-4742
▁田	-4743
异常	-4744
抬头	-4745
玩的	-4746
商品	-4747
标志	-4748
▁才能	-4749
一下啊	-4750
特别喜欢	-4751
一对	-4752
我相信	-4753
▁蓝	-4754
全家	-4755
▁谢谢你	-4756
城堡	-4757
拿来	-4758
用力	-4759
的面	-4760
躲在	-4761
在想	-4762
▁汉	-4763
不必	-4764
人说	-4765
谁的	-4766
之路	-4767
六个	-4768
太大	-4769
23	-4770
▁手	-4771
二年	-4772
亲生	-4773
固定	-4774
缘分	-4775
了但是	-4776
情况下	-4777
照顾好	-4778
太平	-4779
局的	-4780
独自	-4781
▁那你们	-4782
孤独	-4783
我一定	-4784
▁儿子	-4785
了然后	-4786
睡不着	-4787
叫他	-4788
▁所有的	-4789
您看	-4790
跟踪	-4791
▁这也是	-4792
提起	-4793
身为	-4794
戒指	-4795
把手	-4796
的身份	-4797
过日子	-4798
液体	-4799
相当于	-4800
▁这时候	-4801
出国	-4802
差异	-4803
打败	-4804
▁干吗	-4805
就觉得	-4806
上门	-4807
亚洲	-4808
坏人	-4809
尽力	-4810
诸葛	-4811
充满了	-4812
成本	-4813
我最	-4814
校园	-4815
运用	-4816
伟大的	-4817
忙着	-4818
见识	-4819
露出	-4820
交换	-4821
天地	-4822
画的	-4823
黑暗	-4824
二氧化碳	-4825
顺着	-4826
保卫	-4827
微笑	-4828
想知道	-4829
脚步	-4830
我的话	-4831
找了	-4832
▁一般	-4833
你没有	-4834
部电影	-4835
▁喝	-4836
杀害	-4837
▁随着	-4838
看法	-4839
了所以	-4840
仪式	-4841
大陆	-4842
夫妇	-4843
思维	-4844
一支	-4845
冲动	-4846
很高	-4847
形成的	-4848
我记得	-4849
起来的	-4850
那么好	-4851
多种	-4852
快的	-4853
▁关键	-4854
势力	-4855
那位	-4856
红色的	-4857
和尚	-4858
战友	-4859
树下	-4860
▁之后	-4861
▁发现	-4862
代的	-4863
这样子	-4864
去年	-4865
四周	-4866
结了	-4867
长江	-4868
▁我很	-4869
希望你	-4870
起义	-4871
局面	-4872
▁让他们	-4873
会长	-4874
可得	-4875
实的	-4876
应用	-4877
形态	-4878
不高兴	-4879
场景	-4880
徒弟	-4881
不太好	-4882
了一只	-4883
在那个	-4884
▁平	-4885
工夫	-4886
无比	-4887
牡丹	-4888
叫声	-4889
基地	-4890
文物	-4891
花儿	-4892
外人	-4893
电台	-4894
▁今日	-4895
那会儿	-4896
它就	-4897
小猫	-4898
规划	-4899
房间里	-4900
今晚	-4901
受害	-4902
着头	-4903
才知道	-4904
发表	-4905
狠狠	-4906
XXX	-4907
人和	-4908
回到家	-4909
▁你不能	-4910
在于	-4911
该怎么办	-4912
▁啥	-4913
一套	-4914
传承	-4915
物资	-4916
把这些	-4917
而不	-4918
减小	-4919
不了了	-4920
我喜欢	-4921
著名的	-4922
▁跟你	-4923
了他的	-4924
救我	-4925
显然	-4926
点钟	-4927
电阻	-4928
看了看	-4929
▁时	-4930
独特	-4931
静静	-4932
太大了	-4933
XXXXX	-4934
头来	-4935
强大的	-4936
有一次	-4937
十四	-4938
奴才	-4939
活了	-4940
磁场	-4941
咱们就	-4942
▁古	-4943
上前	-4944
下降	-4945
▁他现在	-4946
说出来	-4947
支付	-4948
敌人的	-4949
▁买	-4950
怪不得	-4951
一点都不	-4952
听过	-4953
蒙古	-4954
成为了	-4955
跟大家	-4956
桃花	-4957
的脸	-4958
点什么	-4959
公共	-4960
热爱	-4961
▁比如	-4962
▁便	-4963
模型	-4964
魔鬼	-4965
世上	-4966
胖子	-4967
采用	-4968
每一	-4969
江南	-4970
到哪儿	-4971
▁换	-4972
机场	-4973
正经	-4974
疯狂	-4975
世界杯	-4976
产生的	-4977
带你去	-4978
把自己的	-4979
发育	-4980
溶解	-4981
生活在	-4982
▁事	-4983
▁2	-4984
死我了	-4985
三千	-4986
公交	-4987
军统	-4988
增强	-4989
连长	-4990
打着	-4991
▁不如	-4992
你对	-4993
出口	-4994
当我	-4995
往上	-4996
被你	-4997
生态系统	-4998
▁见	-4999
放开	-5000
不了你	-5001
的所以	-5002
▁尤其是	-5003
十七	-5004
点钱	-5005
▁居然	-5006
光明	-5007
点啊	-5008
上车	-5009
怕你	-5010
到一个	-5011
▁在这个	-5012
乐乐	-5013
遍了	-5014
感冒	-5015
的环境	-5016
等会儿	-5017
舞台上	-5018
的方向	-5019
有什么事	-5020
农夫	-5021
食品	-5022
一个是	-5023
不合适	-5024
太难	-5025
子是	-5026
肚子里	-5027
把人	-5028
详细	-5029
气候	-5030
牛奶	-5031
结婚了	-5032
老爸	-5033
该怎么	-5034
党的	-5035
出事	-5036
承受	-5037
▁你都	-5038
▁喜欢	-5039
金子	-5040
绑架	-5041
说呢	-5042
集体	-5043
▁这下	-5044
▁主	-5045
吃掉	-5046
对的	-5047
操心	-5048
千万不能	-5049
味儿	-5050
▁哎我	-5051
▁哥哥	-5052
失误	-5053
这样的一个	-5054
带我	-5055
背上	-5056
不走	-5057
悄悄地	-5058
来做	-5059
期的	-5060
警官	-5061
感受到	-5062
建造	-5063
特色	-5064
▁绝	-5065
增长	-5066
▁在这	-5067
了我就	-5068
了它	-5069
河里	-5070
谁都	-5071
高手	-5072
他们家	-5073
侦察	-5074
流动	-5075
目光	-5076
他们都	-5077
▁我我我	-5078
培训	-5079
干脆	-5080
最重要的	-5081
大叫	-5082
清晰	-5083
限制	-5084
▁从前	-5085
有时间	-5086
眼光	-5087
▁还能	-5088
▁竟然	-5089
弟兄们	-5090
▁再说了	-5091
▁近	-5092
的话我	-5093
▁我之前	-5094
▁我以为	-5095
举办	-5096
早晚	-5097
先生的	-5098
奇迹	-5099
打我	-5100
不光	-5101
必然	-5102
▁今儿	-5103
撒谎	-5104
▁事情	-5105
有时	-5106
咱们俩	-5107
很厉害	-5108
来呀	-5109
那那	-5110
▁回头	-5111
挂在	-5112
米的	-5113
难得	-5114
了一大	-5115
他们就	-5116
作家	-5117
在海	-5118
镜头	-5119
▁铁	-5120
玩了	-5121
▁开始	-5122
厚的	-5123
身高	-5124
一个好	-5125
▁至少	-5126
不安	-5127
指着	-5128
▁今年	-5129
▁我感觉	-5130
画画	-5131
自身	-5132
快走	-5133
礼貌	-5134
生气了	-5135
运动的	-5136
云南	-5137
惦记	-5138
毛泽东	-5139
的眼睛	-5140
路了	-5141
▁只要你	-5142
像我	-5143
家属	-5144
▁可惜	-5145
补充	-5146
▁直接	-5147
非洲	-5148
意思啊	-5149
包围	-5150
死在	-5151
病了	-5152
联盟	-5153
来找我	-5154
▁那个时候	-5155
反射	-5156
嘻嘻	-5157
这人	-5158
四川	-5159
得更	-5160
是她	-5161
将会	-5162
▁但我	-5163
住着	-5164
情的	-5165
蓝色	-5166
▁离	-5167
踢球	-5168
就应该	-5169
像个	-5170
金融	-5171
长城	-5172
振动	-5173
道德	-5174
是可以	-5175
点头	-5176
▁还没	-5177
周末	-5178
▁日本人	-5179
有啥	-5180
词语	-5181
大利	-5182
火的	-5183
美食	-5184
的时候呢	-5185
袭击	-5186
他对	-5187
果子	-5188
看上去	-5189
一说	-5190
的海	-5191
航天	-5192
然后呢	-5193
▁写	-5194
不一定	-5195
帮我们	-5196
▁你让我	-5197
就可以了	-5198
▁月	-5199
又能	-5200
和她	-5201
投降	-5202
监视	-5203
谈谈	-5204
不顾	-5205
您好	-5206
疯了	-5207
▁你说的	-5208
▁我还有	-5209
▁特	-5210
孔雀	-5211
应的	-5212
▁大概	-5213
真的太	-5214
这样的人	-5215
为啥	-5216
▁BLANK	-5217
考古	-5218
了不少	-5219
玩游戏	-5220
依靠	-5221
的都	-5222
蔬菜	-5223
图书	-5224
▁不仅	-5225
这帮	-5226
17	-5227
家门	-5228
重要的是	-5229
▁医生	-5230
几个月	-5231
搞笑	-5232
来我	-5233
炸弹	-5234
▁准备	-5235
▁然后呢	-5236
没有没有	-5237
60	-5238
减肥	-5239
吃个	-5240
我就想	-5241
▁越	-5242
地在	-5243
物品	-5244
▁夫人	-5245
知道他	-5246
饿了	-5247
▁不是你	-5248
有限	-5249
沿着	-5250
流浪	-5251
交往	-5252
人之	-5253
免费	-5254
抱歉	-5255
电池	-5256
类型	-5257
黄河	-5258
▁根本	-5259
也算	-5260
小红	-5261
▁对我	-5262
▁或许	-5263
实验室	-5264
的时候啊	-5265
句子	-5266
的死	-5267
小老鼠	-5268
数列	-5269
网友	-5270
大量的	-5271
40	-5272
天津	-5273
站着	-5274
▁使	-5275
无辜	-5276
普通的	-5277
保存	-5278
偏偏	-5279
大大	-5280
感染	-5281
钱了	-5282
的人们	-5283
消耗	-5284
你们都	-5285
▁好好好	-5286
你不知道	-5287
广泛	-5288
葫芦	-5289
▁回去	-5290
十分钟	-5291
老人家	-5292
支撑	-5293
武功	-5294
灵魂	-5295
几句	-5296
化妆	-5297
大门	-5298
我一个人	-5299
上升	-5300
广东	-5301
河马	-5302
诸位	-5303
▁就会	-5304
▁答案	-5305
不由	-5306
听我	-5307
有用	-5308
连接	-5309
大气	-5310
家里的	-5311
特别是	-5312
一番	-5313
名单	-5314
民间	-5315
脚下	-5316
谁能	-5317
当时的	-5318
特性	-5319
要想	-5320
还不知道	-5321
一手	-5322
综艺	-5323
隔壁	-5324
▁你真	-5325
看啊	-5326
世界的	-5327
睡了	-5328
高考	-5329
▁即使	-5330
把你的	-5331
的行为	-5332
▁倒	-5333
快要	-5334
某些	-5335
骗子	-5336
蛋白质	-5337
▁百	-5338
不觉	-5339
奴婢	-5340
最早	-5341
味的	-5342
我发现	-5343
的精神	-5344
密切	-5345
以下	-5346
外边	-5347
治理	-5348
行政	-5349
赔偿	-5350
跟着我	-5351
作案	-5352
的这些	-5353
中原	-5354
分配	-5355
号码	-5356
▁正在	-5357
觉得我	-5358
我只	-5359
本人	-5360
问了	-5361
▁尽管	-5362
有这么	-5363
留下的	-5364
好心	-5365
小了	-5366
杰克	-5367
笔钱	-5368
▁这件事	-5369
后边	-5370
喜鹊	-5371
在意	-5372
▁雨	-5373
看好	-5374
还不如	-5375
▁完全	-5376
顶上	-5377
的身体	-5378
▁这孩子	-5379
厂长	-5380
构成	-5381
染色	-5382
检测	-5383
想一想	-5384
子和	-5385
观念	-5386
个人的	-5387
原来是	-5388
就不用	-5389
匆匆	-5390
欺骗	-5391
▁他就是	-5392
不幸	-5393
院子里	-5394
了两	-5395
你家	-5396
恐惧	-5397
他已经	-5398
出什么	-5399
说你们	-5400
四百	-5401
新疆	-5402
类似	-5403
小鬼子	-5404
轻轻地	-5405
湖南	-5406
这段	-5407
快了	-5408
有利于	-5409
的说法	-5410
▁你这么	-5411
口的	-5412
鳄鱼	-5413
▁火	-5414
丞相	-5415
祖宗	-5416
▁一只	-5417
你今天	-5418
战胜	-5419
折磨	-5420
要在	-5421
到最后	-5422
的妈妈	-5423
吃不	-5424
打扫	-5425
毫不	-5426
▁在我	-5427
的力量	-5428
就走	-5429
深圳	-5430
的过程中	-5431
土豆	-5432
欢乐	-5433
逻辑	-5434
首长	-5435
单纯	-5436
实行	-5437
您了	-5438
荣誉	-5439
主力	-5440
何况	-5441
布置	-5442
吃饭了	-5443
相同的	-5444
▁主要是	-5445
靠谱	-5446
这一天	-5447
角落	-5448
颗粒	-5449
前辈	-5450
屏幕	-5451
洛阳	-5452
过吗	-5453
二十四	-5454
女婿	-5455
王府	-5456
的总	-5457
▁日本	-5458
推进	-5459
俄罗斯	-5460
上天	-5461
应当	-5462
玩耍	-5463
刚开始	-5464
的什么	-5465
解放军	-5466
▁几	-5467
告别	-5468
▁将军	-5469
了你的	-5470
他不是	-5471
让大家	-5472
义务	-5473
他和	-5474
宝石	-5475
财富	-5476
迎接	-5477
带我去	-5478
▁常	-5479
一见	-5480
住院	-5481
当着	-5482
您就	-5483
散步	-5484
下列说法	-5485
您别	-5486
▁这都是	-5487
大战	-5488
抓到	-5489
▁你爸	-5490
的心情	-5491
姆斯	-5492
投票	-5493
通道	-5494
拿下	-5495
其他人	-5496
信仰	-5497
▁但是你	-5498
▁这是一个	-5499
让自己	-5500
▁乔	-5501
不止	-5502
从未	-5503
当天	-5504
▁求	-5505
式的	-5506
爆发	-5507
老夫	-5508
行星	-5509
密度	-5510
熊猫	-5511
远了	-5512
顿饭	-5513
的人物	-5514
说清楚	-5515
▁猫	-5516
娜娜	-5517
开展	-5518
虫子	-5519
成功的	-5520
▁他们的	-5521
父子	-5522
背着	-5523
可疑	-5524
好听	-5525
楼下	-5526
▁转	-5527
呼呼	-5528
正义	-5529
各地	-5530
满满	-5531
▁很快	-5532
父亲的	-5533
▁则	-5534
上帝	-5535
啊哎	-5536
心眼	-5537
不仅仅	-5538
▁也不知道	-5539
处置	-5540
志愿	-5541
这么久	-5542
▁头	-5543
▁说明	-5544
二零零	-5545
▁你放心	-5546
同情	-5547
喝水	-5548
门外	-5549
也不用	-5550
在山	-5551
班的	-5552
他把	-5553
强度	-5554
日常	-5555
▁嫂子	-5556
什么叫	-5557
月份	-5558
资产	-5559
很高兴	-5560
▁没关系	-5561
▁原	-5562
主张	-5563
被他	-5564
手的	-5565
摩托	-5566
有两	-5567
未必	-5568
院子	-5569
首诗	-5570
▁过了	-5571
了以后	-5572
一来	-5573
保留	-5574
凤凰	-5575
太好	-5576
少女	-5577
巨大	-5578
缺乏	-5579
何必	-5580
总理	-5581
教师	-5582
这家	-5583
里去	-5584
之时	-5585
▁别人	-5586
你真的	-5587
这两天	-5588
▁瞧	-5589
对面	-5590
想啊	-5591
疾病	-5592
酒吧	-5593
咱们家	-5594
▁你妈	-5595
▁陛下	-5596
这个事儿	-5597
▁没事儿	-5598
分数	-5599
向他	-5600
年人	-5601
返回	-5602
零年	-5603
▁一起	-5604
的基本	-5605
相反	-5606
落到	-5607
▁有一次	-5608
皮皮	-5609
站住	-5610
色彩	-5611
草丛	-5612
觉着	-5613
进屋	-5614
青青	-5615
▁我呢	-5616
相信我	-5617
不爱	-5618
带了	-5619
是真	-5620
黑色	-5621
帮她	-5622
宫殿	-5623
楼上	-5624
组长	-5625
辣椒	-5626
▁公司	-5627
见我	-5628
抓捕	-5629
晚饭	-5630
曹操	-5631
心啊	-5632
烦恼	-5633
甜甜	-5634
的后	-5635
联赛	-5636
▁自然	-5637
说得对	-5638
报复	-5639
毁了	-5640
的三	-5641
▁他要	-5642
▁小猪	-5643
▁也就是	-5644
呵呵	-5645
头了	-5646
伙伴们	-5647
我们会	-5648
▁我心里	-5649
严肃	-5650
听话	-5651
童话	-5652
▁永远	-5653
毕竟是	-5654
的时候你	-5655
才有	-5656
▁材料	-5657
▁今天晚上	-5658
事的	-5659
恐龙	-5660
是用	-5661
死我	-5662
长大的	-5663
更大的	-5664
▁狗	-5665
▁郭	-5666
八百	-5667
找人	-5668
参谋长	-5669
小伙子	-5670
替他	-5671
▁从来	-5672
▁他想	-5673
严重的	-5674
麻烦了	-5675
▁我认为	-5676
一股	-5677
勇士	-5678
相似	-5679
▁多谢	-5680
▁有点	-5681
小姑娘	-5682
主题	-5683
居住	-5684
心意	-5685
他没有	-5686
退役	-5687
有那么	-5688
结局	-5689
有道理	-5690
妇女	-5691
睡着	-5692
风景	-5693
隐瞒	-5694
▁如果我	-5695
精力	-5696
自主	-5697
从来没	-5698
武装	-5699
治病	-5700
看完	-5701
著名	-5702
这座	-5703
▁帮我	-5704
▁忽然	-5705
简直是	-5706
取消	-5707
您说	-5708
理念	-5709
裙子	-5710
不准	-5711
五千	-5712
随意	-5713
你刚才	-5714
一件事情	-5715
得出	-5716
说好	-5717
可不能	-5718
命的	-5719
谨慎	-5720
探索	-5721
大山	-5722
一刻	-5723
电动	-5724
美人	-5725
▁什么叫	-5726
听我的	-5727
草地上	-5728
这样啊	-5729
▁为什么要	-5730
去医院	-5731
白色的	-5732
这么快	-5733
也没什么	-5734
侦探	-5735
桌上	-5736
流行	-5737
▁好啊	-5738
特殊的	-5739
八道	-5740
好我是	-5741
是不会	-5742
他那	-5743
初中	-5744
到底是什么	-5745
战役	-5746
魅力	-5747
怎么不	-5748
想起来	-5749
发誓	-5750
重复	-5751
黄色	-5752
不好的	-5753
▁接	-5754
别动	-5755
就看	-5756
的内容	-5757
▁雪	-5758
分裂	-5759
演唱	-5760
▁那这	-5761
你跟我	-5762
意识到	-5763
叫着	-5764
远处	-5765
让您	-5766
▁一点	-5767
生命的	-5768
▁这是我们	-5769
吓唬	-5770
法庭	-5771
也算是	-5772
了你们	-5773
动能	-5774
发光	-5775
你真	-5776
老天	-5777
▁查	-5778
写着	-5779
包子	-5780
喝茶	-5781
谈判	-5782
先把	-5783
办了	-5784
隐藏	-5785
▁他还	-5786
不行啊	-5787
很容易	-5788
前后	-5789
密的	-5790
球的	-5791
▁是吗	-5792
有三	-5793
▁面对	-5794
只剩下	-5795
实在是太	-5796
功劳	-5797
恩来	-5798
脸色	-5799
贝贝	-5800
了是吧	-5801
贵族	-5802
我那	-5803
沙发	-5804
长长的	-5805
到了一个	-5806
加班	-5807
本题	-5808
▁题干	-5809
分类	-5810
怀里	-5811
她说	-5812
官司	-5813
越多	-5814
跑得	-5815
▁感谢	-5816
我们两个	-5817
当的	-5818
无所谓	-5819
洗手	-5820
什么情况	-5821
依旧	-5822
啊嗯	-5823
封建	-5824
有几	-5825
以前的	-5826
吃得	-5827
无所	-5828
小孩子	-5829
十个	-5830
坐标	-5831
▁里面	-5832
化合	-5833
高了	-5834
我们来	-5835
所以说	-5836
书法	-5837
热量	-5838
舌头	-5839
展现	-5840
鲜花	-5841
有点儿	-5842
却是	-5843
被子	-5844
钢琴	-5845
▁老子	-5846
为自己	-5847
了多少	-5848
的话就	-5849
绿色的	-5850
▁只不过	-5851
不堪	-5852
想不到	-5853
我们这	-5854
▁要不要	-5855
乱了	-5856
得我	-5857
学校的	-5858
岂不是	-5859
▁一个人	-5860
告诉你们	-5861
村子	-5862
因为它	-5863
出了一	-5864
听你的	-5865
过去的	-5866
还需要	-5867
这些年	-5868
▁搞	-5869
一模	-5870
上场	-5871
和大	-5872
白白	-5873
研发	-5874
管家	-5875
21	-5876
呢啊	-5877
警告	-5878
还行	-5879
长度	-5880
过于	-5881
和他的	-5882
了对	-5883
多样	-5884
▁一定会	-5885
世界上最	-5886
认可	-5887
▁我从	-5888
也不要	-5889
你就别	-5890
好了吗	-5891
来过	-5892
一夜	-5893
和谐	-5894
好嘞	-5895
就不是	-5896
文化的	-5897
▁改	-5898
没那么	-5899
▁实际上	-5900
▁所以你	-5901
费用	-5902
▁觉得	-5903
的状态	-5904
▁肯定是	-5905
小黑	-5906
派员	-5907
熬夜	-5908
▁你对	-5909
但是他	-5910
其实我	-5911
做主	-5912
差距	-5913
开着	-5914
房屋	-5915
因为这个	-5916
他呀	-5917
大军	-5918
很远	-5919
离子	-5920
嘟嘟	-5921
嫌弃	-5922
政权	-5923
第五	-5924
的中国	-5925
的人了	-5926
▁这个时候	-5927
▁拉	-5928
▁梁	-5929
好我	-5930
能不	-5931
请坐	-5932
过年	-5933
那样的	-5934
外界	-5935
阵地	-5936
一向	-5937
用户	-5938
风雨	-5939
▁小老鼠	-5940
定律	-5941
怪物	-5942
情愿	-5943
讲讲	-5944
也是一个	-5945
▁挺	-5946
▁齐	-5947
好呢	-5948
更有	-5949
裤子	-5950
吃东西	-5951
爸爸的	-5952
▁哼	-5953
王国	-5954
纪律	-5955
▁记得	-5956
根据地	-5957
答案为	-5958
被我	-5959
▁父亲	-5960
鱼儿	-5961
我看到	-5962
特别地	-5963
▁昨天晚上	-5964
喊道	-5965
说起	-5966
▁是一个	-5967
完善	-5968
客观	-5969
相亲	-5970
走来	-5971
是一只	-5972
差不多了	-5973
▁保	-5974
半径	-5975
杀的	-5976
遇见	-5977
▁麻烦	-5978
告诉她	-5979
今后	-5980
跟谁	-5981
以为是	-5982
他们两个	-5983
一二	-5984
上级	-5985
像你	-5986
客厅	-5987
湖人	-5988
▁让她	-5989
我一个	-5990
早餐	-5991
报名	-5992
描写	-5993
都看	-5994
▁哪儿	-5995
离了	-5996
往外	-5997
就是我的	-5998
in	-5999
的爱	-6000
纪录	-6001
陪着	-6002
换个	-6003
▁对啊我	-6004
没有想到	-6005
CO	-6006
▁狼	-6007
▁路	-6008
动画	-6009
字儿	-6010
平方	-6011
最爱	-6012
遭到	-6013
什么意思啊	-6014
占领	-6015
孩儿	-6016
跟那个	-6017
东南	-6018
▁反	-6019
购买	-6020
退休	-6021
高级	-6022
▁心里	-6023
已经很	-6024
一代	-6025
儿女	-6026
的还是	-6027
选择了	-6028
▁杜	-6029
不明	-6030
共和	-6031
冲突	-6032
出身	-6033
分解	-6034
就叫	-6035
当兵	-6036
循环	-6037
码头	-6038
看这个	-6039
胡说八道	-6040
▁左	-6041
一辆	-6042
安心	-6043
浙江	-6044
200	-6045
▁绝对	-6046
悟空	-6047
有有	-6048
笑容	-6049
茶叶	-6050
了半天	-6051
不方便	-6052
摄影	-6053
深处	-6054
积累	-6055
队友	-6056
已经在	-6057
但他	-6058
俱乐	-6059
做成	-6060
办案	-6061
也是个	-6062
河南	-6063
的两	-6064
▁最终	-6065
因为我们	-6066
多长时间	-6067
▁照	-6068
的病	-6069
要不是	-6070
解决了	-6071
▁米	-6072
不理	-6073
前进	-6074
边上	-6075
同一个	-6076
▁你有没有	-6077
▁飞	-6078
父皇	-6079
监督	-6080
跟他说	-6081
使命	-6082
盒子	-6083
上哪儿	-6084
也不错	-6085
真的好	-6086
三次	-6087
市长	-6088
掩护	-6089
贷款	-6090
你喜欢	-6091
怎么就	-6092
▁你赶紧	-6093
地儿	-6094
学者	-6095
没钱	-6096
登记	-6097
▁我当然	-6098
各种各样的	-6099
个个	-6100
能把	-6101
装修	-6102
不相	-6103
影片	-6104
暗中	-6105
▁以及	-6106
人类的	-6107
比较多	-6108
具备	-6109
天然	-6110
鲤鱼	-6111
离不开	-6112
这几天	-6113
这辈子	-6114
下令	-6115
片子	-6116
▁有的	-6117
实验中	-6118
无限	-6119
驸马	-6120
▁他会	-6121
地图	-6122
辜负	-6123
去见	-6124
手艺	-6125
约定	-6126
调节	-6127
▁将来	-6128
每一个人	-6129
县长	-6130
平等	-6131
电报	-6132
醒醒	-6133
前两天	-6134
咱家	-6135
了一天	-6136
这么想	-6137
回国	-6138
怕我	-6139
幸福的	-6140
毛毛	-6141
主持人	-6142
派出所	-6143
堂堂	-6144
妹子	-6145
小人	-6146
超越	-6147
了一场	-6148
▁设	-6149
哪天	-6150
最有	-6151
车辆	-6152
之前的	-6153
▁放心吧	-6154
▁这一次	-6155
毒品	-6156
闭嘴	-6157
转化为	-6158
▁第一次	-6159
不服	-6160
依据	-6161
即可	-6162
不起来	-6163
地向	-6164
巴巴	-6165
很小	-6166
死啊	-6167
深的	-6168
话题	-6169
鉴定	-6170
鹦鹉	-6171
假装	-6172
▁既	-6173
又在	-6174
时辰	-6175
▁小猴	-6176
▁但是他	-6177
▁就算是	-6178
▁顾	-6179
头啊	-6180
成亲	-6181
拿走	-6182
活的	-6183
药品	-6184
▁已知	-6185
一部分	-6186
大小姐	-6187
奥运会	-6188
细菌	-6189
正常的	-6190
的照片	-6191
▁我发现	-6192
话了	-6193
路线	-6194
的房子	-6195
▁不是我	-6196
舍得	-6197
受到了	-6198
地对	-6199
天鹅	-6200
有机	-6201
比喻	-6202
硫酸	-6203
▁有个	-6204
大多数	-6205
听得	-6206
电压	-6207
骗我	-6208
不能让	-6209
不合	-6210
是好	-6211
梅花	-6212
▁请你	-6213
然后再	-6214
说自己	-6215
的故事点评	-6216
戴着	-6217
掌门	-6218
▁我最近	-6219
是怎么回事	-6220
给我打电话	-6221
说小	-6222
▁说是	-6223
别着急	-6224
根本就没有	-6225
岁了	-6226
▁您是	-6227
▁甲	-6228
总得	-6229
气了	-6230
闪闪	-6231
就是一	-6232
No	-6233
▁呀	-6234
▁敢	-6235
在她	-6236
才行	-6237
船的	-6238
加速	-6239
休息吧	-6240
▁凡	-6241
救人	-6242
的那样	-6243
六百	-6244
强烈	-6245
进城	-6246
▁想要	-6247
▁我家	-6248
▁殿下	-6249
认定	-6250
一早	-6251
村长	-6252
洋洋	-6253
你已经	-6254
▁然后就	-6255
我先走了	-6256
娘子	-6257
宫中	-6258
笔记	-6259
营长	-6260
给了我	-6261
兄妹	-6262
就更	-6263
有好	-6264
计时	-6265
食堂	-6266
比较好	-6267
这样吧	-6268
你为什么	-6269
我们一起	-6270
傍晚	-6271
▁一定是	-6272
▁木	-6273
依赖	-6274
愤怒	-6275
球赛	-6276
跟小	-6277
CD	-6278
协助	-6279
歌手	-6280
西安	-6281
做好了	-6282
不当	-6283
▁说着	-6284
公民	-6285
之后呢	-6286
▁坐	-6287
事先	-6288
拥抱	-6289
树木	-6290
最近的	-6291
我觉得这个	-6292
回报	-6293
拍照	-6294
不会再	-6295
乡亲们	-6296
加速度	-6297
公式	-6298
愉快	-6299
泡泡	-6300
船上	-6301
▁继续	-6302
专业的	-6303
你不用	-6304
得那么	-6305
帮着	-6306
心态	-6307
成一	-6308
武帝	-6309
睁开	-6310
这下	-6311
然后我	-6312
一个问题	-6313
万元	-6314
坚强	-6315
用心	-6316
做了一个	-6317
例子	-6318
验证	-6319
不让我	-6320
一会儿就	-6321
最后一次	-6322
河流	-6323
背叛	-6324
体现了	-6325
合作用	-6326
▁祝	-6327
想让	-6328
杀手	-6329
树的	-6330
的金	-6331
总结	-6332
詹姆斯	-6333
嗓子	-6334
幅画	-6335
装置	-6336
这儿来	-6337
滋味	-6338
往前走	-6339
▁你这样	-6340
很有可能	-6341
因为她	-6342
大灰狼	-6343
人来	-6344
您这	-6345
潜伏	-6346
再说吧	-6347
同样的	-6348
分离	-6349
夸张	-6350
委会	-6351
▁快点	-6352
对他们	-6353
凌晨	-6354
挣扎	-6355
造成的	-6356
▁你最近	-6357
广场	-6358
时尚	-6359
▁故事	-6360
觉得他	-6361
之情	-6362
从前	-6363
股份	-6364
三角形	-6365
参观	-6366
科研	-6367
行李	-6368
的一声	-6369
勉强	-6370
尽了	-6371
想说	-6372
消防	-6373
障碍	-6374
上大学	-6375
所有人都	-6376
▁哈	-6377
导体	-6378
抢救	-6379
▁只见	-6380
▁看见	-6381
的我们	-6382
出租	-6383
巧克	-6384
板上	-6385
等他	-6386
跟人	-6387
▁你快	-6388
▁警察	-6389
吃什么	-6390
在他的	-6391
还不够	-6392
这时候	-6393
倍数	-6394
部署	-6395
产生了	-6396
▁那你说	-6397
卧室	-6398
嘲笑	-6399
战术	-6400
放学	-6401
怎么看	-6402
之心	-6403
到晚	-6404
河水	-6405
行驶	-6406
越好	-6407
生孩子	-6408
代理	-6409
出院	-6410
到他	-6411
变为	-6412
检验	-6413
狡猾	-6414
美国的	-6415
负责任	-6416
▁可能是	-6417
化了	-6418
女神	-6419
痛快	-6420
的一天	-6421
老爷爷	-6422
▁魏	-6423
日的	-6424
种植	-6425
议论	-6426
颈鹿	-6427
从来不	-6428
进入了	-6429
宝藏	-6430
楼梯	-6431
此刻	-6432
▁可我	-6433
不行了	-6434
鬼子的	-6435
上我	-6436
散了	-6437
能有	-6438
跳跳	-6439
▁回来	-6440
在这时	-6441
现在在	-6442
组成的	-6443
皇军	-6444
▁嗯呢	-6445
▁传	-6446
摸摸	-6447
无可	-6448
激烈	-6449
牛肉	-6450
阴谋	-6451
鼹鼠	-6452
▁成为	-6453
也不敢	-6454
处处	-6455
想把	-6456
西南	-6457
▁小兔	-6458
找不着	-6459
明白吗	-6460
完毕	-6461
一件事	-6462
点事儿	-6463
公路	-6464
出息	-6465
透明	-6466
他人	-6467
社会的	-6468
北极	-6469
蚯蚓	-6470
厘米	-6471
富贵	-6472
热的	-6473
我刚才	-6474
不一样的	-6475
在天	-6476
询问	-6477
过他	-6478
▁曾经	-6479
▁这话	-6480
去哪儿了	-6481
大约	-6482
小区	-6483
检察	-6484
▁那咱们	-6485
▁往	-6486
巨人	-6487
苍蝇	-6488
▁据说	-6489
受伤了	-6490
出城	-6491
总会	-6492
缺少	-6493
可以在	-6494
很简单	-6495
去打	-6496
种类	-6497
管了	-6498
大大的	-6499
水面	-6500
的一点	-6501
老爷子	-6502
自私	-6503
▁叔叔	-6504
▁工作	-6505
二十年	-6506
你一个人	-6507
▁冯	-6508
抛弃	-6509
昆虫	-6510
覆盖	-6511
非常非常	-6512
带的	-6513
当作	-6514
模仿	-6515
一个人的	-6516
▁神	-6517
了嗯	-6518
固体	-6519
海里	-6520
进展	-6521
举报	-6522
借口	-6523
的父亲	-6524
这种人	-6525
二百	-6526
调皮	-6527
消失了	-6528
越来越多	-6529
▁雷	-6530
▁那不是	-6531
中华民族	-6532
那个那个	-6533
很想	-6534
改善	-6535
皇宫	-6536
才华	-6537
礼拜	-6538
马车	-6539
▁我国	-6540
这都是	-6541
醒过来	-6542
不给	-6543
代替	-6544
俩人	-6545
要用	-6546
▁上面	-6547
物质的	-6548
计算机	-6549
座的	-6550
棉花	-6551
瓶子	-6552
▁经	-6553
花花	-6554
衣裳	-6555
过生日	-6556
去呀	-6557
外卖	-6558
搜索	-6559
重重	-6560
未婚	-6561
民众	-6562
计较	-6563
这天	-6564
▁我最	-6565
所说的	-6566
做的事情	-6567
▁没什么	-6568
还有很多	-6569
▁定	-6570
一一	-6571
悲伤	-6572
车祸	-6573
▁但是我们	-6574
火锅	-6575
电场	-6576
的门	-6577
秋天	-6578
钱呢	-6579
了就是	-6580
▁我本来	-6581
▁我让你	-6582
这种情况	-6583
▁某	-6584
健身	-6585
收藏	-6586
效应	-6587
最佳	-6588
糖果	-6589
身影	-6590
我帮你	-6591
的证据	-6592
▁没有人	-6593
在一块儿	-6594
完成任务	-6595
我走	-6596
▁不久	-6597
的要求	-6598
▁1	-6599
过后	-6600
DNA	-6601
▁不许	-6602
▁天天	-6603
▁非	-6604
再也没有	-6605
▁我也不知道	-6606
▁战	-6607
不死	-6608
器官	-6609
守着	-6610
手了	-6611
跟前	-6612
▁是我们	-6613
况且	-6614
环保	-6615
血液	-6616
这个家	-6617
低头	-6618
太婆	-6619
心愿	-6620
文艺	-6621
线上	-6622
不错啊	-6623
小兔子	-6624
▁我看你	-6625
出差	-6626
及其	-6627
开个	-6628
旅长	-6629
赶上	-6630
还用	-6631
可真是	-6632
找找	-6633
朝鲜	-6634
▁我以前	-6635
要说	-6636
发生在	-6637
打招呼	-6638
哀家	-6639
当面	-6640
敲门	-6641
当家的	-6642
之上	-6643
张开	-6644
正面	-6645
还原	-6646
从小就	-6647
▁野	-6648
丝绸	-6649
埋伏	-6650
多好	-6651
泥土	-6652
▁小花	-6653
动物的	-6654
哪儿啊	-6655
记住了	-6656
极其	-6657
负担	-6658
▁待	-6659
二号	-6660
要走	-6661
跑来	-6662
院的	-6663
▁你俩	-6664
▁这都	-6665
得着	-6666
招待	-6667
明年	-6668
CBA	-6669
▁走吧	-6670
修建	-6671
寂寞	-6672
房里	-6673
迟早	-6674
▁王爷	-6675
总觉得	-6676
党国	-6677
就给	-6678
戴上	-6679
文的	-6680
昏迷	-6681
村的	-6682
繁殖	-6683
听我说	-6684
我们再	-6685
▁也不是	-6686
▁因为他	-6687
没有关系	-6688
本质	-6689
案的	-6690
淘汰	-6691
屋子里	-6692
说我是	-6693
小于	-6694
抵抗	-6695
求你	-6696
谁是	-6697
起的	-6698
公安局	-6699
目的是	-6700
哪怕	-6701
普遍	-6702
演讲	-6703
那条	-6704
▁你跟我	-6705
别墅	-6706
妙的	-6707
干涉	-6708
▁解析	-6709
留下了	-6710
的一部分	-6711
34	-6712
为她	-6713
录音	-6714
果实	-6715
辉煌	-6716
有一只	-6717
喝的	-6718
这么长时间	-6719
体力	-6720
更新	-6721
渴望	-6722
龙王	-6723
停下来	-6724
自己去	-6725
坏事	-6726
策划	-6727
融合	-6728
怎样的	-6729
对我来说	-6730
了不	-6731
价钱	-6732
先后	-6733
工艺	-6734
穿越	-6735
我当时	-6736
这种事情	-6737
也行	-6738
发动	-6739
女友	-6740
安装	-6741
陷害	-6742
▁你来	-6743
▁它是	-6744
二十五	-6745
巧克力	-6746
的同时	-6747
一个一个	-6748
红了	-6749
▁怎么能	-6750
▁因	-6751
必定	-6752
▁对对	-6753
你到底	-6754
都是在	-6755
这个电影	-6756
教你	-6757
是来	-6758
好了我	-6759
这小子	-6760
an	-6761
三分	-6762
爬到	-6763
好东西	-6764
32	-6765
延安	-6766
▁哪怕	-6767
▁夜	-6768
▁孟	-6769
之力	-6770
封锁	-6771
找出	-6772
▁从小	-6773
合适的	-6774
光线	-6775
火了	-6776
▁还好	-6777
不开心	-6778
的安全	-6779
▁所	-6780
见证	-6781
的很	-6782
都好	-6783
了一种	-6784
乐意	-6785
四军	-6786
墙上	-6787
▁我刚刚	-6788
合成	-6789
天赋	-6790
拿去	-6791
着想	-6792
怎么办啊	-6793
▁你有什么	-6794
头鹰	-6795
探究	-6796
说服	-6797
走在	-6798
工程师	-6799
▁华	-6800
发现的	-6801
▁冬	-6802
不讲	-6803
忙了	-6804
有何	-6805
远方	-6806
▁三十	-6807
小松鼠	-6808
的路上	-6809
真有	-6810
艰苦	-6811
▁直	-6812
流水	-6813
白云	-6814
难题	-6815
▁两位	-6816
以后啊	-6817
可以去	-6818
的态度	-6819
性能	-6820
椅子	-6821
闭上	-6822
▁过去	-6823
三人	-6824
寒冷	-6825
微微	-6826
眼的	-6827
还有个	-6828
一到	-6829
前途	-6830
打打	-6831
村庄	-6832
进门	-6833
陷阱	-6834
黑的	-6835
▁我们都	-6836
现在这个	-6837
简直就是	-6838
吐槽	-6839
大洋	-6840
教导	-6841
解析	-6842
一般的	-6843
▁不可能	-6844
抓紧时间	-6845
这是什么	-6846
挑选	-6847
排名	-6848
俱乐部	-6849
▁你干吗	-6850
趁着	-6851
送我	-6852
马路	-6853
送给你	-6854
什么都没有	-6855
▁气	-6856
男篮	-6857
石油	-6858
图书馆	-6859
这部剧	-6860
▁小白兔	-6861
Cl	-6862
教我	-6863
有你	-6864
在上海	-6865
还给我	-6866
是什么呢	-6867
保重	-6868
疑问	-6869
评论	-6870
走过	-6871
鱼的	-6872
会发生	-6873
多好啊	-6874
打开了	-6875
的历史	-6876
在哪	-6877
不得了	-6878
你们了	-6879
在你的	-6880
最后一个	-6881
▁杀	-6882
羽毛球	-6883
大胆	-6884
康熙	-6885
年的时间	-6886
▁我们已经	-6887
势能	-6888
可见	-6889
找着	-6890
这片	-6891
▁你们都	-6892
他都	-6893
没说	-6894
猜测	-6895
人家的	-6896
被称为	-6897
让我去	-6898
介质	-6899
摆脱	-6900
看不	-6901
提供了	-6902
经历了	-6903
召开	-6904
就来	-6905
当家	-6906
手续	-6907
耐心	-6908
▁还得	-6909
孔子	-6910
▁外面	-6911
有任何	-6912
▁曾	-6913
南北	-6914
奖励	-6915
对外	-6916
就跑	-6917
收购	-6918
施工	-6919
签字	-6920
钱啊	-6921
▁恭喜	-6922
▁明明	-6923
出去的	-6924
▁第一个	-6925
什么都没	-6926
情人	-6927
泉水	-6928
▁哪个	-6929
三四	-6930
你太	-6931
彼得	-6932
没用	-6933
进宫	-6934
▁来了	-6935
会影响	-6936
呢这	-6937
蜡烛	-6938
的男人	-6939
跟别人	-6940
这方面	-6941
危害	-6942
大嫂	-6943
她会	-6944
报答	-6945
服务员	-6946
还是不	-6947
是错误的	-6948
Na	-6949
▁双	-6950
从事	-6951
克服	-6952
圣诞	-6953
总算	-6954
成都	-6955
你们要	-6956
▁现在是	-6957
▁单	-6958
南瓜	-6959
呼噜	-6960
胡萝卜	-6961
我们已经	-6962
现在开始	-6963
伸出	-6964
均匀	-6965
暴力	-6966
杂志	-6967
等了	-6968
精心	-6969
表哥	-6970
饭菜	-6971
呢这个	-6972
完了吗	-6973
感应	-6974
▁你那	-6975
加工	-6976
向往	-6977
恒大	-6978
排列	-6979
▁就是啊	-6980
▁就是因为	-6981
任意	-6982
回归	-6983
留给	-6984
约会	-6985
还给	-6986
▁那行	-6987
了一次	-6988
告辞	-6989
它会	-6990
尊敬	-6991
诚意	-6992
这么好的	-6993
▁你一定要	-6994
▁就是为了	-6995
定位	-6996
小鸡	-6997
阻力	-6998
▁啊我	-6999
可以用	-7000
小狐狸	-7001
形成了	-7002
成功了	-7003
变的	-7004
在下	-7005
心灵	-7006
蚊子	-7007
诸侯	-7008
飞了	-7009
九十	-7010
数为	-7011
火星	-7012
郡主	-7013
▁您看	-7014
其中的	-7015
怎么回事啊	-7016
个体	-7017
容器	-7018
求婚	-7019
行事	-7020
要么	-7021
巴黎	-7022
我爹	-7023
敏感	-7024
比方	-7025
颜值	-7026
什么是	-7027
可以说是	-7028
▁借	-7029
▁柳	-7030
▁洪	-7031
发芽	-7032
点半	-7033
英俊	-7034
一定有	-7035
人也	-7036
疑惑	-7037
遗产	-7038
▁国家	-7039
答应我	-7040
介意	-7041
▁我早就	-7042
你有没有	-7043
偶然	-7044
导弹	-7045
▁全部	-7046
▁前面	-7047
不下去了	-7048
可以通过	-7049
第一时间	-7050
友谊	-7051
流传	-7052
爱上	-7053
提出了	-7054
光合作用	-7055
▁楚	-7056
书包	-7057
化石	-7058
原始	-7059
是那个	-7060
共有	-7061
实地	-7062
手法	-7063
来呢	-7064
▁我爹	-7065
的基础	-7066
围绕	-7067
服从	-7068
苏州	-7069
我都不	-7070
▁沙	-7071
香蕉	-7072
也不好	-7073
也知道	-7074
可以吗	-7075
之间的关系	-7076
多人	-7077
就到	-7078
山西	-7079
蛤蟆	-7080
什么啊	-7081
哥们儿	-7082
看出来	-7083
还记得	-7084
▁他不是	-7085
可靠	-7086
掉的	-7087
▁带着	-7088
了没有	-7089
一小	-7090
中毒	-7091
你做	-7092
兰克	-7093
喊着	-7094
太空	-7095
海的	-7096
阿拉	-7097
▁这边	-7098
我之前	-7099
▁现在的	-7100
他呢	-7101
得到的	-7102
军长	-7103
语文	-7104
万块钱	-7105
对他的	-7106
这段时间	-7107
忍心	-7108
恰恰	-7109
调解	-7110
造型	-7111
▁后面	-7112
▁王子	-7113
了自己	-7114
很开心	-7115
有事儿	-7116
▁就是说	-7117
▁如果我们	-7118
停车	-7119
千米	-7120
就走了	-7121
▁那这个	-7122
干什么呢	-7123
是我们的	-7124
笑笑	-7125
能否	-7126
▁主要	-7127
▁那边	-7128
你帮我	-7129
▁我可是	-7130
大力	-7131
小事	-7132
莫名	-7133
静止	-7134
出事了	-7135
所以我们	-7136
不已	-7137
加快	-7138
诈骗	-7139
不属于	-7140
以后呢	-7141
一批	-7142
没能	-7143
不适合	-7144
小女孩	-7145
▁就这么	-7146
的意思是	-7147
告诉了	-7148
进来了	-7149
人士	-7150
垂直	-7151
秩序	-7152
我希望	-7153
出卖	-7154
胖胖	-7155
▁卫	-7156
汪汪	-7157
灾难	-7158
相遇	-7159
着大	-7160
象征	-7161
了一件	-7162
很好看	-7163
吗啊	-7164
地址	-7165
年来	-7166
活儿	-7167
老三	-7168
谈话	-7169
▁我倒	-7170
▁我呀	-7171
的爸爸	-7172
▁现	-7173
不早	-7174
公布	-7175
思路	-7176
支援	-7177
来啦	-7178
热水	-7179
自豪	-7180
女人的	-7181
▁不就是	-7182
一本	-7183
男友	-7184
▁兔子	-7185
▁亲	-7186
世子	-7187
做人	-7188
叫道	-7189
我只是	-7190
县城	-7191
总部	-7192
攻打	-7193
最小	-7194
人民的	-7195
认识的	-7196
本王	-7197
的命	-7198
▁妹妹	-7199
一双	-7200
救你	-7201
流氓	-7202
的红	-7203
获取	-7204
诗词	-7205
都挺	-7206
防御	-7207
下一步	-7208
了好多	-7209
这件事儿	-7210
升级	-7211
家中	-7212
看书	-7213
莲花	-7214
防守	-7215
的办法	-7216
都是为了	-7217
乐观	-7218
应对	-7219
总裁	-7220
意志	-7221
我好	-7222
浓度	-7223
货币	-7224
▁是吧	-7225
在北京	-7226
▁也没有	-7227
呜呜	-7228
要来	-7229
▁随后	-7230
他这个	-7231
好消息	-7232
完之后	-7233
当年的	-7234
下水	-7235
快来	-7236
游客	-7237
重了	-7238
也不想	-7239
得像	-7240
▁听到	-7241
▁相信	-7242
好了好了	-7243
八个	-7244
公众	-7245
少数	-7246
案发	-7247
质疑	-7248
陷入	-7249
▁就连	-7250
不做	-7251
匈奴	-7252
宰相	-7253
的药	-7254
给别人	-7255
进来的	-7256
▁你没有	-7257
伸手	-7258
▁地球	-7259
消费者	-7260
▁千	-7261
▁邓	-7262
制定	-7263
头脑	-7264
橡皮	-7265
步骤	-7266
灿烂	-7267
短信	-7268
坚定	-7269
不了我	-7270
司令部	-7271
回来啊	-7272
把孩子	-7273
一的	-7274
君子	-7275
指望	-7276
火烧	-7277
牌子	-7278
电器	-7279
拿到了	-7280
摩托车	-7281
哈哈大笑	-7282
行了行了	-7283
天才	-7284
灯泡	-7285
给予	-7286
的手机	-7287
七个	-7288
我到	-7289
肌肉	-7290
▁是谁	-7291
▁队长	-7292
我们有	-7293
奔跑	-7294
平面	-7295
秦国	-7296
前几天	-7297
已经有	-7298
蓝色的	-7299
吃着	-7300
我从	-7301
批准	-7302
拍的	-7303
运行	-7304
自己是	-7305
设计的	-7306
后代	-7307
以后就	-7308
你说你	-7309
树林里	-7310
了三	-7311
冰箱	-7312
大赛	-7313
▁找到	-7314
他还是	-7315
这几	-7316
在上面	-7317
好日子	-7318
所学知识	-7319
厨师	-7320
来个	-7321
再生	-7322
很强	-7323
摄像	-7324
般的	-7325
你心里	-7326
工作了	-7327
▁我一定要	-7328
啥的	-7329
指出	-7330
的中	-7331
▁青蛙	-7332
都这么	-7333
可能就是	-7334
一身	-7335
多万	-7336
嫉妒	-7337
惊奇	-7338
抓了	-7339
看病	-7340
美元	-7341
▁就要	-7342
的一次	-7343
等人	-7344
委员会	-7345
▁书	-7346
▁卖	-7347
皇马	-7348
绿的	-7349
长沙	-7350
▁她说	-7351
回事儿	-7352
分明	-7353
技巧	-7354
心里面	-7355
战场上	-7356
▁起	-7357
落地	-7358
的话那	-7359
▁每个人	-7360
国军	-7361
大脑	-7362
巴萨	-7363
气质	-7364
能在	-7365
被打	-7366
除掉	-7367
发生的	-7368
▁肖	-7369
一副	-7370
娘的	-7371
气得	-7372
秒钟	-7373
骆驼	-7374
▁咱们俩	-7375
那么多的	-7376
一首	-7377
保住	-7378
场面	-7379
缺点	-7380
退了	-7381
▁我找	-7382
他们会	-7383
如同	-7384
急了	-7385
离家	-7386
路的	-7387
的特点	-7388
不知道啊	-7389
你有什么	-7390
▁曹	-7391
洞口	-7392
碎了	-7393
职责	-7394
花瓣	-7395
荣耀	-7396
做这个	-7397
点点头	-7398
▁你小子	-7399
▁不想	-7400
又来了	-7401
我也想	-7402
第三个	-7403
▁嘉	-7404
叛徒	-7405
▁小心	-7406
出去玩	-7407
大将军	-7408
用不着	-7409
黄色的	-7410
然后我就	-7411
▁满	-7412
不禁	-7413
升高	-7414
研制	-7415
管我	-7416
里了	-7417
▁早就	-7418
▁的确	-7419
客气了	-7420
有一条	-7421
要是不	-7422
过不去	-7423
哎哎	-7424
一同	-7425
种种	-7426
轨迹	-7427
▁把他	-7428
算什么	-7429
▁重	-7430
上台	-7431
官兵	-7432
宪兵	-7433
遵守	-7434
问她	-7435
▁强	-7436
一碗	-7437
小米	-7438
楼的	-7439
绝不	-7440
赢得	-7441
喜欢他	-7442
▁鲁	-7443
人多	-7444
喜爱	-7445
急着	-7446
界的	-7447
绝望	-7448
网站	-7449
违反	-7450
雪花	-7451
▁北京	-7452
一起玩	-7453
呢还是	-7454
注意到	-7455
稳定性	-7456
▁然后我	-7457
你能不能	-7458
含量	-7459
战的	-7460
酒精	-7461
顾客	-7462
▁大姐	-7463
不会是	-7464
可以的	-7465
可怜的	-7466
只是一个	-7467
▁点	-7468
孤单	-7469
取得了	-7470
▁你不用	-7471
出于	-7472
弥补	-7473
死不	-7474
说话了	-7475
助于	-7476
是一位	-7477
中国共产党	-7478
万里	-7479
优点	-7480
全体	-7481
江山	-7482
而去	-7483
肩膀	-7484
鸽子	-7485
我这儿	-7486
来这儿	-7487
先不	-7488
发起	-7489
哥的	-7490
景象	-7491
▁好那	-7492
怎么没	-7493
▁画	-7494
个性	-7495
哪种	-7496
相机	-7497
▁老虎	-7498
全都是	-7499
具体的	-7500
条件下	-7501
我们今天	-7502
袋鼠	-7503
▁下次	-7504
▁还不	-7505
很奇怪	-7506
用这个	-7507
丢人	-7508
呢也	-7509
将士	-7510
带回	-7511
▁要想	-7512
一个叫	-7513
男孩子	-7514
▁这样的	-7515
一笑	-7516
希腊	-7517
透露	-7518
一朵	-7519
海上	-7520
王八	-7521
▁又是	-7522
参加了	-7523
菩萨	-7524
染色体	-7525
脑子里	-7526
▁小松鼠	-7527
我自己的	-7528
早日	-7529
显微	-7530
这个机会	-7531
人人	-7532
抱怨	-7533
灯光	-7534
看上	-7535
▁生活	-7536
实现了	-7537
电视台	-7538
艺术家	-7539
前线	-7540
岁月	-7541
开花	-7542
所为	-7543
给的	-7544
上来了	-7545
呢吗	-7546
说来	-7547
退出	-7548
为了我	-7549
啦啦	-7550
歌声	-7551
班牙	-7552
类型的	-7553
▁嗨	-7554
两家	-7555
功率	-7556
悬崖	-7557
收了	-7558
故乡	-7559
特地	-7560
难的	-7561
坐下来	-7562
我说你	-7563
我一定要	-7564
刘邦	-7565
启动	-7566
拍了	-7567
更大	-7568
朝的	-7569
福建	-7570
话呀	-7571
心中的	-7572
挺喜欢	-7573
▁内	-7574
出面	-7575
电源	-7576
糟糕	-7577
躺着	-7578
送的	-7579
▁等你	-7580
了现在	-7581
在这种	-7582
不是一个	-7583
▁虽	-7584
人去	-7585
体内	-7586
先走	-7587
欢喜	-7588
七八糟	-7589
五分钟	-7590
抓住了	-7591
▁不过我	-7592
▁你已经	-7593
中最	-7594
品质	-7595
推测	-7596
救援	-7597
率领	-7598
真想	-7599
蜂蜜	-7600
非常有	-7601
一模一样	-7602
我觉得他	-7603
▁严	-7604
上个	-7605
世间	-7606
佳佳	-7607
统计	-7608
▁我那	-7609
准备了	-7610
位的	-7611
动漫	-7612
高速	-7613
▁把我	-7614
▁放心	-7615
单身	-7616
有话	-7617
球星	-7618
厉害啊	-7619
改变了	-7620
你一定要	-7621
修复	-7622
当你	-7623
残酷	-7624
的嗯	-7625
花生	-7626
件事儿	-7627
在学校	-7628
有一位	-7629
这可是	-7630
改革开放	-7631
嘱咐	-7632
老先生	-7633
▁傻	-7634
▁艾	-7635
▁随	-7636
保姆	-7637
吃药	-7638
小美	-7639
得有	-7640
着手	-7641
院里	-7642
题材	-7643
黑了	-7644
不记得	-7645
这次的	-7646
▁好像是	-7647
庄稼	-7648
搜查	-7649
钓鱼	-7650
也是很	-7651
笑着说	-7652
过一个	-7653
还活着	-7654
哪儿去了	-7655
这个世界	-7656
一层	-7657
嚷嚷	-7658
魔术	-7659
人们的	-7660
来不及了	-7661
众人	-7662
爱国	-7663
要紧	-7664
▁母亲	-7665
再加上	-7666
大学生	-7667
到这	-7668
总监	-7669
找来	-7670
生涯	-7671
被害	-7672
我一定会	-7673
▁恩	-7674
事物	-7675
八卦	-7676
无意	-7677
爪子	-7678
规范	-7679
是谁啊	-7680
真实的	-7681
思念	-7682
片的	-7683
请我	-7684
都行	-7685
还有点	-7686
▁范	-7687
你俩	-7688
尊严	-7689
正要	-7690
风筝	-7691
这样了	-7692
做完	-7693
字的	-7694
打造	-7695
技能	-7696
错的	-7697
▁有了	-7698
我的人	-7699
资本主义	-7700
▁我还以为	-7701
变异	-7702
命啊	-7703
孤儿	-7704
旋转	-7705
纸条	-7706
警惕	-7707
听不懂	-7708
现场的	-7709
诸葛亮	-7710
和水	-7711
成全	-7712
棒了	-7713
远离	-7714
让别人	-7715
前段时间	-7716
反抗	-7717
▁实在	-7718
又一次	-7719
大学的	-7720
张照片	-7721
附近的	-7722
不易	-7723
心事	-7724
途中	-7725
飞来	-7726
把它们	-7727
生物的	-7728
出了一个	-7729
人为	-7730
藏着	-7731
两个月	-7732
只要你	-7733
乎乎	-7734
协调	-7735
宾馆	-7736
提议	-7737
白雪	-7738
翼翼	-7739
了过去	-7740
当然是	-7741
的人啊	-7742
▁可是你	-7743
真的是太	-7744
折射	-7745
股票	-7746
高原	-7747
时代的	-7748
▁于是他	-7749
▁你喜欢	-7750
▁我就想	-7751
▁还有一个	-7752
▁兔	-7753
伙计	-7754
坦克	-7755
约了	-7756
贫困	-7757
说一声	-7758
▁这两天	-7759
判决	-7760
地走	-7761
混乱	-7762
设置	-7763
请教	-7764
说了算	-7765
▁我们也	-7766
录像	-7767
拍戏	-7768
美术	-7769
要多	-7770
预备	-7771
一直没有	-7772
35	-7773
啊好	-7774
无能	-7775
补偿	-7776
馒头	-7777
显微镜	-7778
▁我看到	-7779
▁猪	-7780
子呢	-7781
档案	-7782
点心	-7783
表述	-7784
▁公元	-7785
▁所以他	-7786
军官	-7787
出个	-7788
证实	-7789
▁把你	-7790
是一名	-7791
男人的	-7792
这个孩子	-7793
80	-7794
利亚	-7795
报了	-7796
火虫	-7797
白菜	-7798
移民	-7799
骑着	-7800
一下就	-7801
es	-7802
不打	-7803
几百	-7804
教堂	-7805
聚会	-7806
▁月亮	-7807
做不到	-7808
的母亲	-7809
本来就是	-7810
▁管	-7811
一心	-7812
实习	-7813
改编	-7814
本宫	-7815
来往	-7816
航空	-7817
财政	-7818
▁小猫	-7819
电视机	-7820
发电	-7821
右手	-7822
塔台	-7823
婚事	-7824
桂花	-7825
没完	-7826
表白	-7827
习惯了	-7828
▁是为了	-7829
怎么办呀	-7830
两边	-7831
中学	-7832
天生	-7833
放进	-7834
一只小	-7835
喝多了	-7836
太多的	-7837
这道	-7838
危险了	-7839
危险的	-7840
没事了	-7841
的时候我就	-7842
分的	-7843
外地	-7844
孝顺	-7845
纠结	-7846
▁如此	-7847
觉得你	-7848
说这是	-7849
修改	-7850
吃惊	-7851
自在	-7852
组织上	-7853
▁怪不得	-7854
▁我这儿	-7855
十月	-7856
带她	-7857
震撼	-7858
侦查员	-7859
每一次	-7860
客栈	-7861
放着	-7862
那帮	-7863
▁这才	-7864
不及待	-7865
不得已	-7866
都给我	-7867
伪装	-7868
饭吃	-7869
▁任何	-7870
▁老大	-7871
你们是	-7872
准备好	-7873
这场比赛	-7874
匹马	-7875
四位	-7876
外出	-7877
崇拜	-7878
▁在下	-7879
的因为	-7880
是正确的	-7881
▁省	-7882
教学	-7883
英文	-7884
落后	-7885
要看	-7886
▁你们的	-7887
迫不及待	-7888
一处	-7889
事务	-7890
师的	-7891
母子	-7892
清醒	-7893
街道	-7894
不是在	-7895
放弃了	-7896
不是什么	-7897
乱七八糟	-7898
冲击	-7899
它在	-7900
注定	-7901
祖先	-7902
我马上	-7903
第一天	-7904
▁可是他	-7905
▁弄	-7906
吃到	-7907
哭着	-7908
贝尔	-7909
飞船	-7910
一切都	-7911
东西啊	-7912
你让我	-7913
忘记了	-7914
特派员	-7915
▁你为什么要	-7916
受过	-7917
▁是个	-7918
你怎么了	-7919
聚集	-7920
说有	-7921
违法	-7922
隐蔽	-7923
想起了	-7924
把你们	-7925
一圈	-7926
你爹	-7927
嗯嗯	-7928
地理	-7929
奴隶	-7930
拍卖	-7931
王宫	-7932
的上	-7933
诗歌	-7934
这把	-7935
门前	-7936
一直都	-7937
像一个	-7938
引起了	-7939
▁如果他	-7940
▁法	-7941
外交	-7942
天使	-7943
面馆	-7944
干啥呀	-7945
共享	-7946
加热	-7947
▁师傅	-7948
▁赶快	-7949
如果是	-7950
的国家	-7951
走的时候	-7952
▁钟	-7953
开启	-7954
放的	-7955
春节	-7956
未央	-7957
水流	-7958
起点	-7959
追究	-7960
高高	-7961
▁一次	-7962
不好了	-7963
你赶紧	-7964
萤火虫	-7965
从头	-7966
死后	-7967
▁告诉	-7968
还有一些	-7969
▁合	-7970
抬起	-7971
▁娘娘	-7972
▁记住	-7973
不符合	-7974
你也是	-7975
我也没	-7976
这几个	-7977
▁这一天	-7978
还是比较	-7979
先进	-7980
成语	-7981
登上	-7982
的神	-7983
在美国	-7984
广播剧	-7985
的房间	-7986
下场	-7987
众多	-7988
伙儿	-7989
免得	-7990
商场	-7991
留学	-7992
马克	-7993
▁嗯我	-7994
保佑	-7995
再不	-7996
号的	-7997
干扰	-7998
▁他把	-7999
不不不	-8000
和一个	-8001
还给你	-8002
▁所以呢	-8003
不是为了	-8004
是以	-8005
气啊	-8006
私人	-8007
老乡	-8008
事情的	-8009
弗兰克	-8010
▁就可以	-8011
去接	-8012
就连	-8013
河北	-8014
货物	-8015
的是吧	-8016
的话呢	-8017
我是一个	-8018
▁因为我们	-8019
一笔	-8020
而出	-8021
要我	-8022
错过	-8023
现在我们	-8024
▁凭	-8025
作文	-8026
台词	-8027
子女	-8028
智商	-8029
电磁	-8030
财主	-8031
走得	-8032
镇上	-8033
▁老鼠	-8034
▁还真	-8035
▁那种	-8036
看电影	-8037
热血	-8038
▁总之	-8039
是谁呀	-8040
狠狠地	-8041
▁你们家	-8042
万万	-8043
分成	-8044
创意	-8045
座位	-8046
暑假	-8047
称呼	-8048
路边	-8049
▁为何	-8050
了一声	-8051
发言	-8052
度过	-8053
我哥	-8054
▁一百	-8055
▁他也	-8056
了一遍	-8057
说这些	-8058
▁你也是	-8059
召集	-8060
大妈	-8061
死去	-8062
真诚	-8063
童年	-8064
▁三个	-8065
▁那好	-8066
一点的	-8067
决定了	-8068
不符合题意	-8069
基金	-8070
撤离	-8071
早饭	-8072
通了	-8073
哪一个	-8074
▁小兔子	-8075
这个项目	-8076
很是	-8077
被告	-8078
闺蜜	-8079
饮食	-8080
▁就能	-8081
注意安全	-8082
小弟	-8083
引力	-8084
信不信	-8085
和他们	-8086
总司令	-8087
有办法	-8088
加油加油	-8089
▁鸡	-8090
天哪	-8091
的要	-8092
钢铁	-8093
瞧不起	-8094
这么个	-8095
人马	-8096
儿了	-8097
抗联	-8098
▁中央	-8099
叫起来	-8100
是通过	-8101
的人呢	-8102
国产	-8103
学问	-8104
帅哥	-8105
把门	-8106
抑郁	-8107
一方面	-8108
小心翼翼	-8109
放手	-8110
百合	-8111
眼皮	-8112
着吧	-8113
飞去	-8114
▁如何	-8115
在一起了	-8116
▁讲	-8117
山里	-8118
桃子	-8119
解开	-8120
逃避	-8121
听见了	-8122
ms	-8123
岛上	-8124
注重	-8125
海边	-8126
裁缝	-8127
回答说	-8128
看看你	-8129
▁我还没	-8130
可以看到	-8131
犯罪嫌疑人	-8132
发财	-8133
各国	-8134
开除	-8135
怪的	-8136
无穷	-8137
表扬	-8138
莫名其	-8139
卑职	-8140
星球	-8141
灵活	-8142
要找	-8143
▁回到	-8144
也应该	-8145
时间的	-8146
造成了	-8147
写字	-8148
名为	-8149
搭配	-8150
梦中	-8151
歌唱	-8152
滚滚	-8153
我们先	-8154
特别想	-8155
谢谢啊	-8156
成为一个	-8157
▁问	-8158
他吗	-8159
来回	-8160
▁但他	-8161
是他的	-8162
的关键	-8163
乡村	-8164
善于	-8165
杀我	-8166
浮力	-8167
珠宝	-8168
软的	-8169
从这个	-8170
奇怪的	-8171
打游戏	-8172
是他们	-8173
▁因为你	-8174
▁下列关于	-8175
大雨	-8176
擅长	-8177
稻草	-8178
在心里	-8179
就算了	-8180
当中的	-8181
老奶奶	-8182
行行行	-8183
▁太好了	-8184
对比	-8185
小球	-8186
心上	-8187
心目	-8188
忙碌	-8189
撤退	-8190
月光	-8191
能干	-8192
▁你咋	-8193
做一些	-8194
▁孩子们	-8195
七百	-8196
同伴	-8197
好歹	-8198
残忍	-8199
的口	-8200
羊羊	-8201
获胜	-8202
这套	-8203
这都	-8204
之后就	-8205
等着我	-8206
▁你是说	-8207
有什么用	-8208
▁宝	-8209
华北	-8210
多亏	-8211
花朵	-8212
荷兰	-8213
连个	-8214
得出来	-8215
没时间	-8216
经历过	-8217
▁我估计	-8218
电梯	-8219
营救	-8220
内心的	-8221
完美的	-8222
崩溃	-8223
概率	-8224
灭了	-8225
这三	-8226
送了	-8227
不行吗	-8228
从哪儿	-8229
大伙儿	-8230
我认为	-8231
达到了	-8232
我们中国	-8233
叫什么名字	-8234
搬到	-8235
最为	-8236
经纪	-8237
你不会	-8238
那个地方	-8239
指向	-8240
放入	-8241
▁他又	-8242
我儿子	-8243
的然后	-8244
以往	-8245
死人	-8246
偷偷地	-8247
所以他	-8248
这是我的	-8249
▁你不知道	-8250
▁穿	-8251
▁进	-8252
决策	-8253
怪兽	-8254
恶心	-8255
担当	-8256
棵树	-8257
溜溜	-8258
你也不	-8259
你们就	-8260
再一次	-8261
自己人	-8262
身边的	-8263
▁原来是	-8264
▁这里是	-8265
▁害	-8266
一丝	-8267
不利	-8268
摆动	-8269
连累	-8270
高大	-8271
没看见	-8272
看看吧	-8273
那不是	-8274
小的时候	-8275
忠心	-8276
效力	-8277
新人	-8278
杯子	-8279
玩玩	-8280
皇子	-8281
那时	-8282
准备的	-8283
当地的	-8284
▁今天我	-8285
三月	-8286
得过	-8287
笑声	-8288
蓝天	-8289
诞生	-8290
▁等到	-8291
同意了	-8292
怎么也	-8293
政府的	-8294
弹药	-8295
暖和	-8296
欢呼	-8297
观看	-8298
▁难怪	-8299
不重要	-8300
今年的	-8301
而且还	-8302
表面上	-8303
▁力	-8304
买点	-8305
争夺	-8306
氯化	-8307
田野	-8308
可以说	-8309
恢复了	-8310
有几个	-8311
会很	-8312
外公	-8313
始皇	-8314
地区的	-8315
的信息	-8316
身份证	-8317
▁如果没有	-8318
洞穴	-8319
股东	-8320
多年前	-8321
还以为	-8322
商量一下	-8323
忽略	-8324
疫情	-8325
袋子	-8326
贵妃	-8327
跟上	-8328
适宜	-8329
▁利用	-8330
▁除非	-8331
帝国的	-8332
▁然后再	-8333
▁怎么可能	-8334
▁余	-8335
华的	-8336
姥爷	-8337
提了	-8338
保密局	-8339
名字叫	-8340
在水中	-8341
把他的	-8342
桌子上	-8343
神奇的	-8344
如果没有	-8345
的那个人	-8346
▁帮	-8347
与其	-8348
审讯	-8349
悠悠	-8350
由此	-8351
讲了	-8352
论文	-8353
▁尤其	-8354
知道啊	-8355
▁我也想	-8356
▁说实话	-8357
刺杀	-8358
她她	-8359
烧了	-8360
窗外	-8361
脸的	-8362
转告	-8363
▁你知不知道	-8364
亮了	-8365
住的	-8366
只得	-8367
大众	-8368
还算	-8369
▁团长	-8370
▁这几天	-8371
就是那种	-8372
有一个人	-8373
据说	-8374
漫画	-8375
谁也	-8376
▁我问	-8377
丰富的	-8378
大少爷	-8379
毛主席	-8380
谁也不	-8381
今天我们	-8382
不平	-8383
买个	-8384
周边	-8385
在做	-8386
日后	-8387
细细	-8388
▁植物	-8389
啥时候	-8390
给你送	-8391
跟我走	-8392
▁个	-8393
▁吕	-8394
一试	-8395
为零	-8396
乌云	-8397
五六	-8398
假设	-8399
活泼	-8400
脚印	-8401
话呢	-8402
在网上	-8403
学会了	-8404
给咱们	-8405
是不是啊	-8406
人命	-8407
大喊	-8408
姚明	-8409
得以	-8410
模拟	-8411
王妃	-8412
裁判	-8413
警卫	-8414
财务	-8415
部落	-8416
▁敌人	-8417
活下去	-8418
辈子的	-8419
乡下	-8420
听的	-8421
大婶	-8422
田鼠	-8423
能让	-8424
要到	-8425
的最大	-8426
着我们	-8427
▁共产党	-8428
▁就是那个	-8429
手脚	-8430
拿我	-8431
酒啊	-8432
饮料	-8433
却没有	-8434
我说的	-8435
都是你	-8436
半个小时	-8437
台阶	-8438
坏的	-8439
奉献	-8440
委托	-8441
推广	-8442
曼联	-8443
期望	-8444
自语	-8445
铅笔	-8446
▁你我	-8447
吃饭吧	-8448
高兴的	-8449
▁那可是	-8450
90	-8451
▁元	-8452
包含	-8453
小黄	-8454
聊了	-8455
▁二位	-8456
安全的	-8457
怎么还	-8458
的家伙	-8459
认真的	-8460
日本人的	-8461
的是一个	-8462
▁交	-8463
不时	-8464
相声	-8465
突出	-8466
不是有	-8467
工作人员	-8468
五月	-8469
哪一	-8470
处罚	-8471
太君	-8472
无情	-8473
特工	-8474
艺人	-8475
ABC	-8476
存在的	-8477
把我给	-8478
西班牙	-8479
这一个	-8480
这里是	-8481
▁况且	-8482
恨不得	-8483
来我们	-8484
的理解	-8485
还不能	-8486
都不要	-8487
▁我倒是	-8488
▁我只能	-8489
咱们这个	-8490
▁那我们就	-8491
▁受	-8492
▁虎	-8493
地道	-8494
母后	-8495
清白	-8496
种的	-8497
组的	-8498
公交车	-8499
在后面	-8500
掌柜的	-8501
比赛的	-8502
高兴了	-8503
▁也就是说	-8504
我刚	-8505
繁荣	-8506
胆小	-8507
小姐姐	-8508
我就会	-8509
的一条	-8510
看到你	-8511
▁微	-8512
伤员	-8513
先别	-8514
包装	-8515
包裹	-8516
夺冠	-8517
将他	-8518
幻想	-8519
当他	-8520
是非	-8521
溜达	-8522
▁也不能	-8523
觉得这个	-8524
劝劝	-8525
好像在	-8526
▁这是我的	-8527
仙人	-8528
懂吗	-8529
打到	-8530
▁世界	-8531
成一个	-8532
踢足球	-8533
▁我就是想	-8534
▁任	-8535
▁贾	-8536
但我	-8537
婴儿	-8538
平贵	-8539
草地	-8540
看着我	-8541
▁两个人	-8542
岁的时候	-8543
根本没有	-8544
▁收	-8545
▁董	-8546
一线	-8547
不满	-8548
写得	-8549
店的	-8550
新娘	-8551
明珠	-8552
这小	-8553
有这种	-8554
来电话	-8555
▁在这里	-8556
两个孩子	-8557
可不可以	-8558
都是我的	-8559
不认	-8560
位移	-8561
场所	-8562
复兴	-8563
死你	-8564
海南	-8565
这叫	-8566
香的	-8567
他们说	-8568
在空中	-8569
手中的	-8570
跟这个	-8571
▁现在我	-8572
唱着	-8573
家具	-8574
考核	-8575
野猪	-8576
鲨鱼	-8577
事实上	-8578
你就会	-8579
想到了	-8580
房子的	-8581
看电视	-8582
问题啊	-8583
▁船	-8584
乞丐	-8585
对抗	-8586
急得	-8587
海军	-8588
消化	-8589
给谁	-8590
阁下	-8591
的人吗	-8592
还是没有	-8593
侵略	-8594
啄木	-8595
围着	-8596
拜访	-8597
沈阳	-8598
爬上	-8599
▁反而	-8600
▁这叫	-8601
救出来	-8602
求求你	-8603
▁就是你	-8604
久的	-8605
响起	-8606
她也	-8607
手啊	-8608
保护好	-8609
比我们	-8610
▁把这个	-8611
▁袁	-8612
亮亮	-8613
搭档	-8614
泄露	-8615
炸药	-8616
窗口	-8617
医院的	-8618
原子弹	-8619
走过来	-8620
▁我马上	-8621
商量商量	-8622
可别	-8623
城门	-8624
竟敢	-8625
总经理	-8626
是你们	-8627
见到了	-8628
在这儿呢	-8629
所有的人	-8630
丽的	-8631
帅的	-8632
排球	-8633
柱子	-8634
沉默	-8635
火焰	-8636
足以	-8637
▁每个	-8638
空气中	-8639
给孩子	-8640
这首歌	-8641
▁再加上	-8642
▁就是我	-8643
考虑考虑	-8644
自己的孩子	-8645
▁戴	-8646
▁蔡	-8647
两点	-8648
乐器	-8649
回收	-8650
待遇	-8651
探长	-8652
票房	-8653
辐射	-8654
▁要么	-8655
养老	-8656
又被	-8657
机的	-8658
荣幸	-8659
▁完了	-8660
了我要	-8661
我觉得我	-8662
这个意思	-8663
九月	-8664
初步	-8665
喇叭	-8666
影视	-8667
长着	-8668
小刺猬	-8669
带回来	-8670
带走了	-8671
来一个	-8672
肯定不会	-8673
一事	-8674
头疼	-8675
照样	-8676
线圈	-8677
美味	-8678
迟到	-8679
她自己	-8680
▁姜	-8681
又说	-8682
呆了	-8683
啊都	-8684
很像	-8685
情节	-8686
纸上	-8687
了一张	-8688
好好休息	-8689
▁哟	-8690
中医	-8691
二叔	-8692
利润	-8693
阿里	-8694
▁是他	-8695
喜欢我	-8696
的事业	-8697
的计划	-8698
颜色的	-8699
▁他们俩	-8700
什么样子	-8701
▁现在我们	-8702
向您	-8703
滴滴	-8704
项羽	-8705
一口气	-8706
食物链	-8707
依法	-8708
出自	-8709
吹牛	-8710
救救	-8711
翻了	-8712
越高	-8713
足了	-8714
转动	-8715
怎么那么	-8716
▁你什么时候	-8717
一堆	-8718
嫦娥	-8719
指纹	-8720
节日	-8721
行吧	-8722
透了	-8723
高明	-8724
▁你平时	-8725
▁我不管	-8726
▁这小子	-8727
有什么好	-8728
做功	-8729
光照	-8730
对话	-8731
就打	-8732
爱人	-8733
病情	-8734
祝贺	-8735
窝里	-8736
蒸发	-8737
事儿了	-8738
想让我	-8739
有人在	-8740
▁通	-8741
之际	-8742
九九	-8743
听你	-8744
宁愿	-8745
扮演	-8746
有大	-8747
的真	-8748
纤维	-8749
西藏	-8750
跟随	-8751
啄木鸟	-8752
如果我	-8753
▁那是因为	-8754
支队	-8755
足的	-8756
这篇	-8757
半个月	-8758
啊什么	-8759
错误的是	-8760
再聊	-8761
平行	-8762
重心	-8763
钻进	-8764
鼠狼	-8765
很快就会	-8766
悲剧	-8767
透过	-8768
晚上的	-8769
▁同志们	-8770
▁就是要	-8771
▁程	-8772
使者	-8773
再多	-8774
叶片	-8775
海涛	-8776
看她	-8777
自治	-8778
▁男人	-8779
▁这条	-8780
▁这点	-8781
是不能	-8782
还是个	-8783
▁但是呢	-8784
▁我说我	-8785
多月	-8786
高峰	-8787
▁哪有	-8788
传统的	-8789
▁临	-8790
▁伯	-8791
借钱	-8792
场合	-8793
▁也没	-8794
的秘密	-8795
我们应该	-8796
▁不一会儿	-8797
▁立	-8798
中文	-8799
体制	-8800
你走	-8801
冲着	-8802
引导	-8803
抽烟	-8804
短短	-8805
▁我给	-8806
在路上	-8807
有好多	-8808
的是不是	-8809
ol	-8810
了哎	-8811
出场	-8812
晓得	-8813
火灾	-8814
碳酸	-8815
福利	-8816
纠缠	-8817
试图	-8818
食材	-8819
儿媳妇	-8820
的学生	-8821
的感情	-8822
▁住	-8823
你最	-8824
她要	-8825
小偷	-8826
小龙	-8827
延续	-8828
很长	-8829
甜蜜	-8830
设施	-8831
有些人	-8832
真的要	-8833
官府	-8834
的电话	-8835
题目中	-8836
▁我还要	-8837
也就是说	-8838
非常重要	-8839
为此	-8840
珍贵	-8841
还敢	-8842
▁人类	-8843
了许多	-8844
在这边	-8845
爱的人	-8846
▁你看你	-8847
一举	-8848
人群	-8849
叫来	-8850
咋办	-8851
国防	-8852
明月	-8853
能耐	-8854
视野	-8855
出现的	-8856
时间内	-8857
▁谁知道	-8858
举动	-8859
做点	-8860
抢劫	-8861
老二	-8862
▁回家	-8863
不放心	-8864
到今天	-8865
干嘛呀	-8866
都觉得	-8867
那个什么	-8868
当事	-8869
当场	-8870
起身	-8871
你是个	-8872
的颜色	-8873
着眼睛	-8874
起来吧	-8875
▁你看这	-8876
▁小狐狸	-8877
三号	-8878
你个	-8879
写信	-8880
改进	-8881
路口	-8882
▁下午	-8883
▁大象	-8884
▁这人	-8885
历史的	-8886
干吗呢	-8887
很清楚	-8888
认真地	-8889
▁但是现在	-8890
他来	-8891
压根	-8892
是说	-8893
暖暖	-8894
点燃	-8895
▁女人	-8896
为之	-8897
史上	-8898
格格	-8899
▁想必	-8900
总不能	-8901
溶液中	-8902
紧紧地	-8903
▁3	-8904
春秋	-8905
红包	-8906
过着	-8907
野生	-8908
▁你就别	-8909
▁远	-8910
不愿	-8911
会对	-8912
层的	-8913
脂肪	-8914
蔷薇	-8915
记着	-8916
去参加	-8917
四个人	-8918
多大的	-8919
▁千万别	-8920
▁我这是	-8921
因此正确答案是	-8922
哥你	-8923
学了	-8924
枪毙	-8925
节约	-8926
▁最好	-8927
▁老夫	-8928
不来了	-8929
可是我	-8930
啊这是	-8931
不长	-8932
妖精	-8933
清了	-8934
过上	-8935
途径	-8936
那块	-8937
金牌	-8938
大人的	-8939
的想法	-8940
黑色的	-8941
▁你帮我	-8942
▁在我们	-8943
已经开始	-8944
▁秀	-8945
▁属下	-8946
回来呀	-8947
在医院	-8948
我不要	-8949
走走走	-8950
太不	-8951
妈呀	-8952
山坡	-8953
得去	-8954
筷子	-8955
终身	-8956
蜀山	-8957
十几年	-8958
家里人	-8959
才发现	-8960
从中	-8961
情景	-8962
抚养	-8963
搬家	-8964
此次	-8965
禁止	-8966
趋势	-8967
他那个	-8968
需要你	-8969
▁你们是	-8970
▁兄弟们	-8971
▁卡	-8972
▁静	-8973
医学	-8974
嘴上	-8975
的白	-8976
精英	-8977
脱离	-8978
舒适	-8979
搞清楚	-8980
▁就是想	-8981
▁所以我就	-8982
克斯	-8983
恰好	-8984
气温	-8985
约翰	-8986
罪名	-8987
诗句	-8988
但是呢	-8989
可惜了	-8990
小男孩	-8991
渐渐地	-8992
负责人	-8993
高高的	-8994
在我这儿	-8995
假如	-8996
无力	-8997
极限	-8998
车子	-8999
▁具体	-9000
完整的	-9001
万人	-9002
比他	-9003
闹了	-9004
买东西	-9005
我不管	-9006
解决问题	-9007
啥呢	-9008
▁都不	-9009
▁都会	-9010
她现在	-9011
皇上的	-9012
说好了	-9013
▁你还有	-9014
怕他	-9015
轰炸	-9016
面试	-9017
▁幸亏	-9018
不正确	-9019
了过来	-9020
地球上	-9021
收到了	-9022
电影院	-9023
过程当中	-9024
伤亡	-9025
军火	-9026
子龙	-9027
是人	-9028
▁上海	-9029
只知道	-9030
娱乐圈	-9031
开心的	-9032
肯定有	-9033
被他们	-9034
▁你你你	-9035
▁我们两个	-9036
en	-9037
▁紫	-9038
射击	-9039
▁他要是	-9040
人工智能	-9041
东家	-9042
想念	-9043
挂着	-9044
草莓	-9045
试探	-9046
赶忙	-9047
默契	-9048
▁日军	-9049
不过来	-9050
指的是	-9051
▁一九四	-9052
▁没办法	-9053
到这儿来	-9054
分散	-9055
山下	-9056
推理	-9057
棒的	-9058
老鹰	-9059
▁即便	-9060
▁算了	-9061
了一块	-9062
在他们	-9063
慢慢的	-9064
真是个	-9065
▁香	-9066
后期	-9067
将近	-9068
局势	-9069
当做	-9070
珠子	-9071
骗了	-9072
到我的	-9073
陌生人	-9074
什么事了	-9075
这个节目	-9076
▁留	-9077
亲切	-9078
光荣	-9079
又没	-9080
性状	-9081
碰上	-9082
终点	-9083
送去	-9084
吃完了	-9085
才可以	-9086
怎么知道	-9087
公正	-9088
务必	-9089
岗位	-9090
戏剧	-9091
▁本王	-9092
不了的	-9093
不去了	-9094
两银子	-9095
▁英	-9096
▁酒	-9097
人数	-9098
佛教	-9099
傻子	-9100
再看	-9101
占据	-9102
取了	-9103
受的	-9104
吃亏	-9105
康复	-9106
洗衣	-9107
难免	-9108
我就要	-9109
▁故答案为	-9110
▁麦	-9111
性子	-9112
空调	-9113
震惊	-9114
▁给他	-9115
意大利	-9116
相关的	-9117
没有那么	-9118
东京	-9119
举起	-9120
列车	-9121
排练	-9122
看守	-9123
较大	-9124
遇上	-9125
很正常	-9126
您放心	-9127
着自己	-9128
踏踏实	-9129
▁萧	-9130
▁跑	-9131
▁道	-9132
生理	-9133
的女	-9134
▁东西	-9135
▁我好	-9136
啊现在	-9137
绝不会	-9138
能找到	-9139
可爱的小	-9140
▁这么多年	-9141
不小	-9142
从我	-9143
值为	-9144
日夜	-9145
湖北	-9146
▁同学	-9147
▁鬼子	-9148
为大家	-9149
实在太	-9150
▁他们是	-9151
的事儿啊	-9152
这么多人	-9153
年轻的时候	-9154
凉了	-9155
睁睁	-9156
胃口	-9157
听起来	-9158
多少人	-9159
的话你	-9160
这里面	-9161
都是有	-9162
用自己的	-9163
▁活	-9164
传染	-9165
地铁	-9166
边缘	-9167
速率	-9168
▁比较	-9169
整个人	-9170
杀了我	-9171
这种事	-9172
45	-9173
▁另	-9174
之恩	-9175
信用	-9176
原料	-9177
取决	-9178
地震	-9179
治好	-9180
行踪	-9181
的距离	-9182
我们自己	-9183
▁我就知道	-9184
二姐	-9185
叽叽	-9186
地产	-9187
奸细	-9188
怪你	-9189
机制	-9190
▁不光	-9191
分之一	-9192
天上的	-9193
生病了	-9194
▁我们会	-9195
▁波	-9196
企图	-9197
别扭	-9198
寻常	-9199
得跟	-9200
致的	-9201
金银	-9202
给人家	-9203
在哪儿呢	-9204
喷嚏	-9205
多谢	-9206
太监	-9207
好友	-9208
游乐	-9209
王者	-9210
菊花	-9211
那人	-9212
风光	-9213
▁我哥	-9214
对了你	-9215
▁这怎么	-9216
一间	-9217
也该	-9218
前方	-9219
市民	-9220
枕头	-9221
概括	-9222
泪水	-9223
睡吧	-9224
以后再	-9225
先走了拜拜	-9226
▁选	-9227
上市	-9228
改天	-9229
激情	-9230
生素	-9231
眼了	-9232
荷花	-9233
送来	-9234
首次	-9235
▁走了	-9236
更好地	-9237
的事啊	-9238
▁我应该	-9239
▁我愿意	-9240
▁行行行	-9241
交道	-9242
多岁	-9243
抖音	-9244
故宫	-9245
落下	-9246
两个字	-9247
今天是	-9248
你必须	-9249
手里的	-9250
特别有	-9251
这一辈子	-9252
就从	-9253
感知	-9254
户口	-9255
把大	-9256
落实	-9257
你们先	-9258
说一下	-9259
都一样	-9260
▁你就不	-9261
▁然后我就	-9262
奈何	-9263
映雪	-9264
江苏	-9265
零二	-9266
你一个	-9267
虽然是	-9268
说我的	-9269
儿臣	-9270
大口	-9271
应付	-9272
日记	-9273
病啊	-9274
着脸	-9275
▁还请	-9276
会导致	-9277
姑奶奶	-9278
的事了	-9279
问题了	-9280
不离	-9281
得分	-9282
的可	-9283
见不到	-9284
这东西	-9285
▁史	-9286
侍卫	-9287
威风	-9288
找她	-9289
是个好	-9290
然后又	-9291
▁巴	-9292
何时	-9293
小猴子	-9294
的妻子	-9295
看了一	-9296
着我的	-9297
都喜欢	-9298
咪咪	-9299
所需	-9300
楚国	-9301
▁小狗	-9302
像我们	-9303
到哪里	-9304
少奶奶	-9305
就是有	-9306
最高的	-9307
▁对了你	-9308
书房	-9309
图片	-9310
姨妈	-9311
幽默	-9312
最低	-9313
有我	-9314
极为	-9315
取决于	-9316
的生命	-9317
相信你	-9318
▁你心里	-9319
▁我也觉得	-9320
依次	-9321
在上	-9322
排队	-9323
的马	-9324
钻石	-9325
▁人生	-9326
不在家	-9327
本来就	-9328
就是你的	-9329
但是我觉得	-9330
▁知	-9331
信念	-9332
八月	-9333
小明	-9334
引发	-9335
待了	-9336
推断	-9337
走上	-9338
▁身体	-9339
不在乎	-9340
长颈鹿	-9341
没事没事	-9342
这样的事情	-9343
勾结	-9344
喝醉	-9345
欲望	-9346
▁物体	-9347
我都会	-9348
▁中国的	-9349
▁还没有	-9350
70	-9351
七月	-9352
哥俩	-9353
拯救	-9354
诱惑	-9355
可怕的	-9356
▁抓	-9357
三种	-9358
严厉	-9359
会是	-9360
关了	-9361
响了	-9362
四季	-9363
忠诚	-9364
空军	-9365
行走	-9366
说谎	-9367
▁你敢	-9368
对我说	-9369
老朋友	-9370
公元	-9371
圆的	-9372
差别	-9373
胡同	-9374
阵容	-9375
不允许	-9376
换一个	-9377
知道自己	-9378
剪刀	-9379
宗教	-9380
耳边	-9381
了你还	-9382
你说话	-9383
吃个饭	-9384
就是了	-9385
应该的	-9386
革命的	-9387
想想办法	-9388
呢那	-9389
小青	-9390
画家	-9391
说您	-9392
逐步	-9393
不会有	-9394
呢在	-9395
国庆	-9396
成年	-9397
焦虑	-9398
病房	-9399
辽宁	-9400
▁一年	-9401
一分钟	-9402
二十八	-9403
我还没	-9404
需要的	-9405
任何一个	-9406
特别特别	-9407
一组	-9408
何处	-9409
余的	-9410
感慨	-9411
海水	-9412
清晨	-9413
甘心	-9414
穿的	-9415
评审	-9416
这对	-9417
▁经常	-9418
不怎么	-9419
共和国	-9420
注意力	-9421
第一名	-9422
一点也不	-9423
我也不知道	-9424
▁动	-9425
识别	-9426
费了	-9427
通讯	-9428
金钱	-9429
雨水	-9430
黄的	-9431
▁没人	-9432
去找他	-9433
朋友圈	-9434
牺牲了	-9435
▁然后他	-9436
与我	-9437
命了	-9438
换成	-9439
没见	-9440
灯笼	-9441
疙瘩	-9442
眼看	-9443
空的	-9444
答题	-9445
联手	-9446
认知	-9447
▁女儿	-9448
大队长	-9449
日本的	-9450
演唱会	-9451
的一面	-9452
的责任	-9453
睡觉了	-9454
很有意思	-9455
▁装	-9456
年间	-9457
运营	-9458
马的	-9459
▁是要	-9460
不出去	-9461
找回来	-9462
给你买	-9463
关门	-9464
然后他	-9465
大家一起	-9466
不容	-9467
侮辱	-9468
写作	-9469
原地	-9470
呀啊	-9471
奖金	-9472
米饭	-9473
▁她在	-9474
今天我	-9475
几句话	-9476
小动物	-9477
的命令	-9478
▁昂	-9479
一等	-9480
上看	-9481
乾隆	-9482
她又	-9483
谁呢	-9484
▁少爷	-9485
▁我跟他	-9486
两个小时	-9487
团团	-9488
左边	-9489
把枪	-9490
模糊	-9491
狙击	-9492
谁来	-9493
▁今晚	-9494
也不行	-9495
和妈妈	-9496
是一条	-9497
的意见	-9498
▁鱼	-9499
三岁	-9500
弹簧	-9501
没啥	-9502
清理	-9503
看在	-9504
碰撞	-9505
▁他不	-9506
得非常	-9507
我也要	-9508
摇摇头	-9509
现在都	-9510
真的有	-9511
▁不要再	-9512
她还	-9513
就用	-9514
左手	-9515
民国	-9516
的比	-9517
端的	-9518
这可	-9519
骚扰	-9520
▁正是	-9521
就不要	-9522
我们不	-9523
说话呢	-9524
▁教	-9525
▁热	-9526
体重	-9527
免疫	-9528
更为	-9529
跳到	-9530
飞翔	-9531
了中国	-9532
应该有	-9533
猫头鹰	-9534
言自语	-9535
你好你好	-9536
这个名字	-9537
下课	-9538
力和	-9539
数目	-9540
桂林	-9541
美美	-9542
走廊	-9543
领先	-9544
▁特别是	-9545
▁第二个	-9546
受苦	-9547
哲学	-9548
复习	-9549
带有	-9550
格外	-9551
矿物	-9552
频繁	-9553
地说我	-9554
举手	-9555
司法	-9556
哪位	-9557
多远	-9558
望去	-9559
混蛋	-9560
睡得	-9561
▁他对	-9562
良好的	-9563
▁他们在	-9564
也是为了	-9565
跟我说过	-9566
▁凤	-9567
名声	-9568
啊不	-9569
无疑	-9570
的亲	-9571
盐酸	-9572
把所有的	-9573
是一样的	-9574
没有一个	-9575
cm	-9576
一周	-9577
三点	-9578
右边	-9579
啊在	-9580
大侠	-9581
姿势	-9582
宠物	-9583
每人	-9584
间谍	-9585
快快快	-9586
来这里	-9587
是什么样	-9588
上网	-9589
不完	-9590
公务	-9591
啊对	-9592
念头	-9593
挺有	-9594
本地	-9595
氛围	-9596
野兔	-9597
▁也就	-9598
▁猴子	-9599
不用了	-9600
了一份	-9601
现在我	-9602
老天爷	-9603
告诉大家	-9604
▁玩	-9605
之比	-9606
前去	-9607
强盗	-9608
趴在	-9609
价值观	-9610
一惊	-9611
嘿嘿	-9612
大风	-9613
愚蠢	-9614
的内	-9615
那次	-9616
发生过	-9617
答应你	-9618
联合国	-9619
那一天	-9620
▁她现在	-9621
不等	-9622
厅长	-9623
我所	-9624
拉拉	-9625
景色	-9626
的在	-9627
进球	-9628
采集	-9629
000	-9630
回家吧	-9631
如果不	-9632
▁你们要	-9633
▁德	-9634
不受	-9635
发抖	-9636
感恩	-9637
斜面	-9638
沉淀	-9639
第六	-9640
▁这可	-9641
大家好	-9642
成了一	-9643
把他给	-9644
丝毫	-9645
勤劳	-9646
品尝	-9647
我怕	-9648
眼中	-9649
我是个	-9650
我还真	-9651
飞走了	-9652
▁今天的	-9653
▁还不是	-9654
te	-9655
与你	-9656
磁性	-9657
看不出来	-9658
给我一个	-9659
出版	-9660
啊有	-9661
子你	-9662
状元	-9663
诉讼	-9664
趁机	-9665
▁就说	-9666
不动了	-9667
出发了	-9668
老太婆	-9669
请你们	-9670
谁知道	-9671
过几天	-9672
学术	-9673
小鸭	-9674
解除	-9675
辩论	-9676
一九九	-9677
好几个	-9678
又会	-9679
女巫	-9680
巧合	-9681
王牌	-9682
缓缓	-9683
▁好我	-9684
口袋里	-9685
得很好	-9686
来自于	-9687
互动	-9688
仇恨	-9689
公益	-9690
匀速	-9691
房租	-9692
斯的	-9693
老妈	-9694
通报	-9695
那年	-9696
陕西	-9697
面条	-9698
和这个	-9699
说两句	-9700
▁一九三	-9701
自言自语	-9702
又大	-9703
意料	-9704
来吗	-9705
的她	-9706
要的	-9707
要跟	-9708
转转	-9709
杀了他	-9710
则是	-9711
变形	-9712
天了	-9713
接过	-9714
符号	-9715
粒子	-9716
精确	-9717
▁老婆	-9718
父母的	-9719
的一位	-9720
了自己的	-9721
到底是谁	-9722
的小朋友	-9723
后就	-9724
回过	-9725
图纸	-9726
大唐	-9727
登陆	-9728
视觉	-9729
▁司令	-9730
▁本宫	-9731
上面的	-9732
不回来	-9733
深深地	-9734
能看到	-9735
▁易	-9736
冒着	-9737
分队	-9738
地步	-9739
西域	-9740
那小	-9741
▁您就	-9742
▁警方	-9743
那么大的	-9744
公斤	-9745
城外	-9746
最初	-9747
犯人	-9748
不过我	-9749
我的心	-9750
放心了	-9751
来的时候	-9752
▁你怎么知道	-9753
广大	-9754
愧是	-9755
提示	-9756
老弟	-9757
骑兵	-9758
上去了	-9759
化合物	-9760
卫生间	-9761
怎么想	-9762
生下来	-9763
飞行员	-9764
▁同学们	-9765
▁今天我们	-9766
一脸	-9767
会把	-9768
含义	-9769
坚守	-9770
小鹿	-9771
您先	-9772
淘宝	-9773
相公	-9774
落的	-9775
视线	-9776
▁那她	-9777
你的人	-9778
你的话	-9779
到什么	-9780
动物园	-9781
委员长	-9782
房子里	-9783
让你去	-9784
飞快地	-9785
咋样	-9786
带人	-9787
相识	-9788
这大	-9789
▁不但	-9790
▁哪里	-9791
▁注意	-9792
▁随时	-9793
你说我	-9794
分别是	-9795
有助于	-9796
几点	-9797
取代	-9798
时他	-9799
汉字	-9800
生前	-9801
▁也要	-9802
▁可他	-9803
的游戏	-9804
谢谢您	-9805
过分了	-9806
那几个	-9807
▁我是不是	-9808
▁深	-9809
动着	-9810
大吃	-9811
淘气	-9812
的多	-9813
篮子	-9814
连夜	-9815
▁观察	-9816
什么吗	-9817
公主的	-9818
▁你看我	-9819
36	-9820
傻瓜	-9821
机灵	-9822
逃脱	-9823
风的	-9824
▁一些	-9825
▁不错	-9826
别别别	-9827
学生对	-9828
用这种	-9829
▁你是我	-9830
都没有了	-9831
有什么事儿	-9832
一跳	-9833
供应	-9834
干掉	-9835
某个	-9836
流量	-9837
灌木	-9838
谦虚	-9839
发出的	-9840
我不太	-9841
这个事	-9842
丢失	-9843
任命	-9844
值钱	-9845
咚咚	-9846
大多	-9847
药物	-9848
言论	-9849
飞的	-9850
▁狮子	-9851
才能够	-9852
办的	-9853
现金	-9854
竹子	-9855
近代	-9856
逍遥	-9857
项链	-9858
静静地	-9859
已经死了	-9860
一转	-9861
到位	-9862
和李	-9863
开关	-9864
未知	-9865
道上	-9866
▁对你	-9867
二十万	-9868
▁我真是	-9869
俘虏	-9870
啤酒	-9871
建国	-9872
龙的	-9873
Yes	-9874
▁我哪	-9875
只需要	-9876
后面的	-9877
让我来	-9878
▁我这次	-9879
我的孩子	-9880
乘客	-9881
加点	-9882
咱就	-9883
拼了	-9884
涉嫌	-9885
认同	-9886
让开	-9887
▁他俩	-9888
▁别再	-9889
两口子	-9890
写作业	-9891
还是在	-9892
▁今天是	-9893
变成一个	-9894
▁好不容易	-9895
的时候我们	-9896
八九	-9897
关照	-9898
地形	-9899
才对	-9900
相见	-9901
街头	-9902
▁进行	-9903
全部都	-9904
离婚了	-9905
▁这么多	-9906
了我觉得	-9907
弱的	-9908
蹊跷	-9909
长相	-9910
快乐的	-9911
火车站	-9912
现在还	-9913
发现自己	-9914
查出	-9915
隧道	-9916
▁不同	-9917
▁如果是	-9918
不行不行	-9919
无论如何	-9920
▁冰	-9921
▁商	-9922
我给	-9923
族的	-9924
有余	-9925
棺材	-9926
的正	-9927
硝酸	-9928
立场	-9929
编剧	-9930
预测	-9931
首领	-9932
▁你呢	-9933
▁都要	-9934
为他们	-9935
了因为	-9936
跑过来	-9937
▁他已经	-9938
这么多的	-9939
你当	-9940
偷袭	-9941
地从	-9942
这钱	-9943
违背	-9944
▁总是	-9945
三十五	-9946
我朋友	-9947
有的人	-9948
的现象	-9949
请大家	-9950
迟到了	-9951
▁所以才	-9952
▁这说明	-9953
每个人的	-9954
▁你怎么能	-9955
上说	-9956
小羊	-9957
模特	-9958
消除	-9959
真人	-9960
评估	-9961
▁嗯那	-9962
▁大王	-9963
▁这两	-9964
拿过来	-9965
不干	-9966
不接	-9967
中山	-9968
书的	-9969
人情	-9970
任性	-9971
停了	-9972
只想	-9973
四月	-9974
怀念	-9975
成天	-9976
打发	-9977
相爱	-9978
职务	-9979
过一	-9980
这批	-9981
▁假如	-9982
▁是在	-9983
了一百	-9984
人生的	-9985
分别为	-9986
更重要	-9987
王八蛋	-9988
▁救	-9989
就让	-9990
报案	-9991
拍拍	-9992
课程	-9993
▁别说	-9994
的运动	-9995
这个故事	-9996
不舍	-9997
出色	-9998
提取	-9999
派的	-10000
▁您好	-10001
有点像	-10002
用什么	-10003
美国人	-10004
这是个	-10005
为什么呢	-10006
了解一下	-10007
山水	-10008
岸边	-10009
手套	-10010
搞得	-10011
请他	-10012
靠着	-10013
付出了	-10014
又没有	-10015
很可能	-10016
了是不是	-10017
经济发展	-10018
▁吉	-10019
丹丹	-10020
埋怨	-10021
格局	-10022
菲菲	-10023
到那个	-10024
我说我	-10025
有的是	-10026
▁蒋	-10027
你咋	-10028
平原	-10029
张大	-10030
渔夫	-10031
爱心	-10032
▁可不	-10033
▁究竟	-10034
▁谁说	-10035
掉下来	-10036
一项	-10037
刺客	-10038
小声	-10039
排查	-10040
气味	-10041
▁若是	-10042
做出了	-10043
听说了	-10044
嘛然后	-10045
在那边	-10046
对自己的	-10047
广西	-10048
算账	-10049
赶来	-10050
的对手	-10051
▁可是现在	-10052
大哭	-10053
急事	-10054
斯特	-10055
▁也有	-10056
我也会	-10057
班主任	-10058
完全可以	-10059
▁噢	-10060
▁彭	-10061
一米	-10062
办理	-10063
喳喳	-10064
摸着	-10065
清洁	-10066
谁敢	-10067
都别	-10068
▁一种	-10069
▁不就	-10070
眼睁睁	-10071
▁你只要	-10072
▁在这儿	-10073
你怎么来了	-10074
千金	-10075
察觉	-10076
岳父	-10077
沙滩	-10078
他怎么	-10079
只是一	-10080
▁凭什么	-10081
人手	-10082
侯爷	-10083
回应	-10084
气氛	-10085
渠道	-10086
生怕	-10087
读者	-10088
▁不不不	-10089
中国人的	-10090
在这儿啊	-10091
不放	-10092
去救	-10093
又把	-10094
族长	-10095
早早	-10096
梦里	-10097
歌曲	-10098
▁你爹	-10099
不好啊	-10100
关系的	-10101
心里话	-10102
的技术	-10103
▁小时候	-10104
不是不是	-10105
▁果	-10106
一方	-10107
不掉	-10108
东山	-10109
变态	-10110
平凡	-10111
文中	-10112
普及	-10113
片段	-10114
老王	-10115
肇事	-10116
说他们	-10117
在我面前	-10118
中正确的是	-10119
有没有什么	-10120
仗义	-10121
你给	-10122
六号	-10123
去我	-10124
外星	-10125
宪法	-10126
师爷	-10127
花样	-10128
袜子	-10129
透镜	-10130
她就是	-10131
打了个	-10132
把你给	-10133
那以后	-10134
▁你也不	-10135
爷爷奶奶	-10136
一脚	-10137
双眼	-10138
变法	-10139
大名	-10140
宁可	-10141
恩人	-10142
想看	-10143
突围	-10144
▁太子	-10145
▁朋友	-10146
▁此事	-10147
了好几	-10148
的条件	-10149
这一块	-10150
境界	-10151
天堂	-10152
昆仑	-10153
是为	-10154
物种	-10155
的来	-10156
词儿	-10157
身旁	-10158
试一下	-10159
▁这句话	-10160
处境	-10161
战队	-10162
▁长官	-10163
得不错	-10164
▁小猴子	-10165
▁我以后	-10166
一次机会	-10167
在我身边	-10168
是什么意思	-10169
对应	-10170
担忧	-10171
他们也	-10172
休息一下	-10173
莫名其妙	-10174
人吧	-10175
地主	-10176
坐吧	-10177
她能	-10178
慢走	-10179
气势	-10180
稀罕	-10181
过度	-10182
金星	-10183
骑马	-10184
国外的	-10185
指挥部	-10186
不解	-10187
哭泣	-10188
团聚	-10189
得是	-10190
潇洒	-10191
转变	-10192
这也	-10193
闲着	-10194
▁天下	-10195
▁问题	-10196
了一句	-10197
抓起来	-10198
的叙述	-10199
聪明的	-10200
▁怎么着	-10201
▁或者是	-10202
东海	-10203
你管	-10204
六月	-10205
兵器	-10206
冬季	-10207
播出	-10208
旅馆	-10209
认错	-10210
陆续	-10211
零食	-10212
预告	-10213
饿死	-10214
▁春天	-10215
了你就	-10216
想跟你	-10217
▁那现在	-10218
哪儿来的	-10219
了点	-10220
同胞	-10221
▁啊那	-10222
十二月	-10223
十年代	-10224
户人家	-10225
温暖的	-10226
▁对我们	-10227
▁这是你	-10228
在一起的	-10229
OH	-10230
他没	-10231
值班	-10232
去查	-10233
啊别	-10234
将其	-10235
就越	-10236
忙活	-10237
斯坦	-10238
是无	-10239
海底	-10240
牵扯	-10241
终究	-10242
要打	-10243
请假	-10244
赞同	-10245
骗你	-10246
五十万	-10247
绝对不能	-10248
养的	-10249
几日	-10250
基于	-10251
导线	-10252
眉头	-10253
蜻蜓	-10254
长辈	-10255
▁学校	-10256
▁过来	-10257
又开始	-10258
真的吗	-10259
跟着你	-10260
这个大	-10261
▁我不要	-10262
谢谢大家	-10263
仆人	-10264
叫她	-10265
太小	-10266
或是	-10267
▁倒是	-10268
▁结合	-10269
在自己	-10270
把我当	-10271
指导员	-10272
精彩的	-10273
跟人家	-10274
SO	-10275
▁谷	-10276
厂里	-10277
按时	-10278
短暂	-10279
租界	-10280
策略	-10281
血管	-10282
被关	-10283
要注意	-10284
▁你以后	-10285
▁我其实	-10286
▁布	-10287
伤的	-10288
回避	-10289
大鱼	-10290
血压	-10291
▁想到	-10292
▁我正	-10293
不过是	-10294
笔记本	-10295
你没事吧	-10296
有这样的	-10297
一刀	-10298
南极	-10299
去向	-10300
学长	-10301
逃走	-10302
也比较	-10303
外国人	-10304
就算是	-10305
的事实	-10306
说你是	-10307
我的时候	-10308
我知道了	-10309
仪器	-10310
有意	-10311
的呃	-10312
饼干	-10313
好几天	-10314
就一直	-10315
误会了	-10316
看到一个	-10317
合法	-10318
导师	-10319
带他	-10320
想问	-10321
福气	-10322
统统	-10323
羊肉	-10324
设法	-10325
闻到	-10326
黑熊	-10327
▁每年	-10328
我要是	-10329
高兴兴	-10330
▁这些年	-10331
一个小时	-10332
躺在床上	-10333
是什么样的	-10334
公寓	-10335
参赛	-10336
处分	-10337
无忧	-10338
▁那不	-10339
就喜欢	-10340
新中国	-10341
看一眼	-10342
考虑到	-10343
▁还有什么	-10344
▁丽	-10345
▁门	-10346
她呀	-10347
惭愧	-10348
房产	-10349
说在	-10350
鼓掌	-10351
受到的	-10352
多样性	-10353
就到了	-10354
尽全力	-10355
紧接着	-10356
▁我帮你	-10357
▁我问你	-10358
考虑一下	-10359
咕咕	-10360
大火	-10361
死活	-10362
水和	-10363
若是	-10364
蹦蹦	-10365
部剧	-10366
▁您这	-10367
▁电影	-10368
不管是	-10369
见到你	-10370
中国人民	-10371
这个案子	-10372
习近	-10373
帮您	-10374
愧疚	-10375
懂事	-10376
柿子	-10377
核桃	-10378
沙子	-10379
爱我	-10380
不下去	-10381
中国队	-10382
在一块	-10383
朋友的	-10384
氢氧化	-10385
环境的	-10386
被别人	-10387
高兴得	-10388
好好想想	-10389
斑马	-10390
老远	-10391
说吗	-10392
贵州	-10393
这款	-10394
好一点	-10395
给他的	-10396
发生变化	-10397
下列说法正确的是	-10398
在后	-10399
复仇	-10400
太过	-10401
恶的	-10402
有心	-10403
的但	-10404
难看	-10405
▁立刻	-10406
第一位	-10407
▁更何况	-10408
一团	-10409
人大	-10410
养活	-10411
分泌	-10412
命题	-10413
和张	-10414
增援	-10415
归来	-10416
最快	-10417
齐了	-10418
地上的	-10419
来找你	-10420
照顾你	-10421
也挺好的	-10422
▁兰	-10423
▁梅	-10424
▁趁	-10425
之类	-10426
副总	-10427
四海	-10428
头大	-10429
头顶	-10430
师叔	-10431
得挺	-10432
激素	-10433
跑啊	-10434
▁在你	-10435
十二点	-10436
▁整	-10437
仙子	-10438
叫人	-10439
团伙	-10440
外援	-10441
害羞	-10442
屋顶	-10443
精准	-10444
这项	-10445
野兽	-10446
▁眼下	-10447
习近平	-10448
来来来来	-10449
不尽	-10450
个忙	-10451
书写	-10452
口味	-10453
得的	-10454
杀他	-10455
mol	-10456
▁把它	-10457
以上的	-10458
游击队	-10459
的心理	-10460
这个游戏	-10461
修炼	-10462
坏蛋	-10463
大白	-10464
好意	-10465
打猎	-10466
指标	-10467
摇晃	-10468
玛丽	-10469
耳机	-10470
闪电	-10471
也是有	-10472
你那个	-10473
失败了	-10474
或者说	-10475
是多少	-10476
跟我一起	-10477
一走	-10478
兵马	-10479
凭借	-10480
取出	-10481
情侣	-10482
玄牧	-10483
要吃	-10484
你们在	-10485
的设计	-10486
▁他说他	-10487
▁这一切	-10488
其实就是	-10489
他跟	-10490
崛起	-10491
更高	-10492
立了	-10493
钱包	-10494
▁例如	-10495
▁学生	-10496
大规模	-10497
希望能	-10498
我的小	-10499
歇会儿	-10500
的选择	-10501
警察局	-10502
我也觉得	-10503
▁令	-10504
上啊	-10505
不分	-10506
单调	-10507
就当	-10508
擅自	-10509
电能	-10510
自有	-10511
上厕所	-10512
了一口	-10513
出租车	-10514
和那个	-10515
回来啦	-10516
家门口	-10517
的手段	-10518
碰到了	-10519
说了我	-10520
▁你真是	-10521
▁就是我们	-10522
28	-10523
▁且	-10524
▁灰	-10525
两端	-10526
寡妇	-10527
忍受	-10528
流血	-10529
演奏	-10530
睡眠	-10531
阴影	-10532
▁离开	-10533
▁空气	-10534
▁老人	-10535
所以就	-10536
完全没有	-10537
这些都是	-10538
一无	-10539
事呢	-10540
看这	-10541
拿走了	-10542
提供的	-10543
▁待会儿	-10544
一定不会	-10545
怎么还不	-10546
保守	-10547
出名	-10548
县令	-10549
参考	-10550
听懂	-10551
安宁	-10552
社区	-10553
融入	-10554
想好了	-10555
▁一开始	-10556
▁差不多	-10557
▁晚	-10558
▁追	-10559
不论	-10560
哑巴	-10561
学员	-10562
审判	-10563
甭管	-10564
血迹	-10565
部位	-10566
他们要	-10567
看新闻	-10568
试一试	-10569
了你知道吗	-10570
吃喝	-10571
征服	-10572
时常	-10573
最多的	-10574
▁好了好了	-10575
▁了	-10576
▁树	-10577
一枪	-10578
主角	-10579
你为	-10580
倘若	-10581
呀那	-10582
商店	-10583
替代	-10584
榜样	-10585
没没	-10586
除非	-10587
和其他	-10588
清楚楚	-10589
男嘉宾	-10590
看不起	-10591
自己也	-10592
▁你想想	-10593
▁那是我	-10594
有自己的	-10595
那么多人	-10596
借助	-10597
否认	-10598
干燥	-10599
并未	-10600
您您	-10601
谎言	-10602
金山	-10603
▁早上	-10604
不说了	-10605
你以为	-10606
可以啊	-10607
复杂的	-10608
明显的	-10609
▁但是在	-10610
▁卢	-10611
党员	-10612
婷婷	-10613
害死	-10614
对战	-10615
是天	-10616
机密	-10617
比分	-10618
水晶	-10619
焦点	-10620
购物	-10621
▁他能	-10622
▁说话	-10623
不下来	-10624
我以前	-10625
我要去	-10626
▁也不会	-10627
了一口气	-10628
什么什么	-10629
▁康	-10630
不高	-10631
传达	-10632
合力	-10633
君主	-10634
学着	-10635
山洞	-10636
得要	-10637
收下	-10638
权的	-10639
油的	-10640
蝙蝠	-10641
非法	-10642
当然了	-10643
我妈妈	-10644
提醒你	-10645
范围内	-10646
很多事情	-10647
▁如果你们	-10648
▁大家好我是	-10649
夸奖	-10650
明朝	-10651
梦见	-10652
群体	-10653
一个女人	-10654
足球比赛	-10655
减轻	-10656
剧组	-10657
庄主	-10658
指定	-10659
次的	-10660
笑脸	-10661
在关注	-10662
▁到现在	-10663
▁如果说	-10664
不用不用	-10665
交了	-10666
倭寇	-10667
十天	-10668
娘家	-10669
故选	-10670
海外	-10671
证人	-10672
钱吗	-10673
那两个	-10674
都不用	-10675
你听我说	-10676
99	-10677
三日	-10678
四面	-10679
幼稚	-10680
找的	-10681
护卫	-10682
连连	-10683
▁我让	-10684
民族的	-10685
▁松	-10686
为一	-10687
厂的	-10688
古城	-10689
家园	-10690
当个	-10691
本营	-10692
硬的	-10693
碎片	-10694
花猫	-10695
茫茫	-10696
草药	-10697
▁凶手	-10698
你说这	-10699
城市的	-10700
有多大	-10701
已经到了	-10702
水稻	-10703
破案	-10704
请客	-10705
躲避	-10706
你干吗	-10707
救了我	-10708
新鲜的	-10709
说我要	-10710
▁谁让你	-10711
去哪儿啊	-10712
反应生成	-10713
没有发现	-10714
▁已	-10715
了没	-10716
呱呱	-10717
哪吒	-10718
大清	-10719
往来	-10720
快活	-10721
接待	-10722
甲乙	-10723
科的	-10724
边境	-10725
▁皇帝	-10726
你爸爸	-10727
杀了你	-10728
肯定要	-10729
▁想不到	-10730
兼职	-10731
准时	-10732
即便	-10733
噩梦	-10734
挂了	-10735
捕捉	-10736
科幻	-10737
膨胀	-10738
这身	-10739
周围的	-10740
解释一下	-10741
▁半	-10742
他很	-10743
八点	-10744
卡车	-10745
巡逻	-10746
能吃	-10747
逛街	-10748
马拉	-10749
吃完饭	-10750
▁国民党	-10751
▁我们今天	-10752
争吵	-10753
地狱	-10754
我用	-10755
无一	-10756
而又	-10757
这支	-10758
的人才	-10759
过两天	-10760
这是我们	-10761
国宝	-10762
当上	-10763
毒的	-10764
羚羊	-10765
重伤	-10766
▁去年	-10767
了一把	-10768
啊但是	-10769
大自然	-10770
该如何	-10771
▁我们先	-10772
▁我还真	-10773
真的没有	-10774
说法错误	-10775
云朵	-10776
占了	-10777
多想	-10778
天真	-10779
家务	-10780
打你	-10781
最新	-10782
都打	-10783
也是我	-10784
就来了	-10785
普通人	-10786
村子里	-10787
那些人	-10788
你们这些	-10789
国民政府	-10790
在自己的	-10791
来看一下	-10792
外表	-10793
天黑	-10794
当真	-10795
水了	-10796
灵感	-10797
社交	-10798
账户	-10799
▁公子	-10800
安全感	-10801
是一件	-10802
两万	-10803
千克	-10804
合格	-10805
地盘	-10806
深度	-10807
▁你才	-10808
就感觉	-10809
时期的	-10810
看那个	-10811
充电	-10812
咯咯	-10813
师弟	-10814
携带	-10815
流的	-10816
满脸	-10817
装饰	-10818
随机	-10819
▁来到	-10820
了而且	-10821
做朋友	-10822
对得起	-10823
把事情	-10824
玫瑰花	-10825
看到他	-10826
这三个	-10827
什么事啊	-10828
的时候她	-10829
谢谢你啊	-10830
▁你还记得	-10831
三国	-10832
学良	-10833
就先	-10834
捣乱	-10835
文皓	-10836
立功	-10837
纽约	-10838
通缉	-10839
▁臣妾	-10840
喝一杯	-10841
干净净	-10842
清清楚楚	-10843
▁所以我觉得	-10844
▁河	-10845
姨父	-10846
对此	-10847
懒得	-10848
穿了	-10849
纳闷	-10850
缓解	-10851
▁幸好	-10852
儿子的	-10853
原因是	-10854
这几年	-10855
交情	-10856
后天	-10857
汉子	-10858
病的	-10859
结实	-10860
隐私	-10861
▁小鸟	-10862
战争的	-10863
的队伍	-10864
肯定能	-10865
他家	-10866
光滑	-10867
关联	-10868
去呢	-10869
孝敬	-10870
幕后	-10871
弯弯	-10872
敦煌	-10873
整齐	-10874
活力	-10875
然大	-10876
疯子	-10877
的黑	-10878
进化	-10879
孙悟空	-10880
它就是	-10881
对他说	-10882
拿什么	-10883
新四军	-10884
新来的	-10885
电影的	-10886
突然间	-10887
讲故事	-10888
辛辛苦	-10889
都说了	-10890
高高兴兴	-10891
在这个时候	-10892
出血	-10893
名义	-10894
地想	-10895
法子	-10896
那张	-10897
此同时	-10898
这些事情	-10899
▁唯	-10900
一月	-10901
官的	-10902
明了	-10903
波的	-10904
百草	-10905
碰见	-10906
▁多少	-10907
的对象	-10908
过这个	-10909
这会儿	-10910
▁那我也	-10911
与人	-10912
喜悦	-10913
塑造	-10914
孙女	-10915
废物	-10916
待在	-10917
思议	-10918
摆着	-10919
殖民	-10920
玩家	-10921
金鱼	-10922
霸王	-10923
只要是	-10924
好多了	-10925
希望他	-10926
车来了	-10927
▁听说你	-10928
▁实	-10929
▁鹿	-10930
你才	-10931
房的	-10932
拇指	-10933
砸了	-10934
营业	-10935
追赶	-10936
▁随便	-10937
也非常	-10938
比赛中	-10939
的是我	-10940
认识你	-10941
你知道吧	-10942
不符	-10943
台球	-10944
往回	-10945
往里	-10946
朝着	-10947
来救	-10948
老年	-10949
青草	-10950
几十年	-10951
都没了	-10952
▁小刺猬	-10953
辛辛苦苦	-10954
▁你知道吗	-10955
从不	-10956
升起	-10957
子孙	-10958
沸腾	-10959
流程	-10960
盘子	-10961
签约	-10962
纯粹	-10963
绝了	-10964
胡闹	-10965
▁想想	-10966
和你们	-10967
妻子的	-10968
想了想	-10969
来参加	-10970
▁这里面	-10971
一步一步	-10972
最喜欢的	-10973
跟我说了	-10974
万分	-10975
为国	-10976
助手	-10977
变量	-10978
坦白	-10979
大局	-10980
字母	-10981
封闭	-10982
收看	-10983
次数	-10984
科比	-10985
长清	-10986
▁还在	-10987
不能说	-10988
得好好	-10989
的所有	-10990
▁没问题	-10991
很多很多	-10992
杀掉	-10993
用水	-10994
男性	-10995
遗址	-10996
个孩子	-10997
心爱的	-10998
机械能	-10999
的两个	-11000
的行动	-11001
知道吧	-11002
赶紧去	-11003
▁我们去	-11004
所以我觉得	-11005
了您	-11006
小宝	-11007
当过	-11008
恶劣	-11009
不是吗	-11010
女孩儿	-11011
的高度	-11012
▁也可以	-11013
之王	-11014
亲口	-11015
唐朝	-11016
安危	-11017
完蛋	-11018
巴掌	-11019
我太	-11020
樱桃	-11021
淀粉	-11022
荷叶	-11023
被迫	-11024
车里	-11025
鲜血	-11026
▁好多	-11027
再说了	-11028
我的手	-11029
看到这个	-11030
出入	-11031
局里	-11032
整数	-11033
阻挡	-11034
鳌拜	-11035
▁保护	-11036
啊咱们	-11037
走出来	-11038
▁亲爱的	-11039
▁当然是	-11040
▁那个人	-11041
每个人都	-11042
这样下去	-11043
了但	-11044
五万	-11045
哈尔	-11046
地质	-11047
尚未	-11048
建成	-11049
而死	-11050
难忘	-11051
在你们	-11052
我以为	-11053
我还能	-11054
▁我要去	-11055
给我们的	-11056
▁但是我觉得	-11057
乐趣	-11058
她不	-11059
种群	-11060
金币	-11061
▁她就	-11062
▁老公	-11063
但是你	-11064
公里的	-11065
吓坏了	-11066
哪儿了	-11067
就是不	-11068
我特别	-11069
母亲的	-11070
水资源	-11071
老婆婆	-11072
▁只要是	-11073
我们还是	-11074
是一个非常	-11075
一出	-11076
包袱	-11077
拿个	-11078
接头	-11079
理智	-11080
罗马	-11081
▁你让	-11082
写了一	-11083
带回去	-11084
旁边的	-11085
聊聊天	-11086
跟咱们	-11087
▁我担心	-11088
那么容易	-11089
▁达	-11090
打破	-11091
把头	-11092
显著	-11093
看吧	-11094
私下	-11095
▁也会	-11096
包大人	-11097
女主角	-11098
是由于	-11099
有许多	-11100
的是你	-11101
看什么	-11102
说如果	-11103
进去吧	-11104
▁其他的	-11105
我们国家	-11106
有什么问题	-11107
会员	-11108
传到	-11109
啊您	-11110
师姐	-11111
常识	-11112
啊你们	-11113
▁如果不是	-11114
▁我现在就	-11115
▁我这不是	-11116
前妻	-11117
包容	-11118
变大	-11119
差了	-11120
推出	-11121
无故	-11122
武林	-11123
汤姆	-11124
调动	-11125
这条路	-11126
▁而且还	-11127
▁切	-11128
不留	-11129
奇奇	-11130
子牙	-11131
什么话	-11132
使用的	-11133
受害者	-11134
就是她	-11135
▁你必须	-11136
▁基本上	-11137
因为他们	-11138
▁面	-11139
上是	-11140
再做	-11141
放假	-11142
转过	-11143
也很好	-11144
共同的	-11145
行了吧	-11146
马上要	-11147
▁我们应该	-11148
了都	-11149
作出	-11150
对它	-11151
晨曦	-11152
神的	-11153
芯片	-11154
▁主人	-11155
▁进入	-11156
不能够	-11157
技术的	-11158
的一片	-11159
谁都不	-11160
项正确	-11161
很长时间	-11162
执行任务	-11163
▁永	-11164
▁靠	-11165
呀这	-11166
山顶	-11167
放我	-11168
老总	-11169
▁原本	-11170
▁对吧	-11171
▁当他	-11172
无论是	-11173
是比较	-11174
▁你如果	-11175
26	-11176
▁初	-11177
向东	-11178
听啊	-11179
大头	-11180
小船	-11181
山寨	-11182
拜见	-11183
疼痛	-11184
立的	-11185
绘画	-11186
衙门	-11187
路程	-11188
了一起	-11189
了你别	-11190
就会有	-11191
洗衣服	-11192
在哪儿啊	-11193
▁佳	-11194
他为	-11195
所说	-11196
查到	-11197
症状	-11198
装的	-11199
见着	-11200
▁冬天	-11201
▁遇到	-11202
给我买	-11203
老人的	-11204
送来的	-11205
那可是	-11206
麻烦你	-11207
今天开始	-11208
是一个很	-11209
▁傅	-11210
上过	-11211
冰冰	-11212
向着	-11213
小溪	-11214
州的	-11215
底线	-11216
注射	-11217
自愿	-11218
赶走	-11219
选举	-11220
陪她	-11221
零点	-11222
不至于	-11223
了一圈	-11224
他不会	-11225
时需要	-11226
跑过去	-11227
▁我儿子	-11228
给你一个	-11229
说什么呢	-11230
不正确的是	-11231
▁信	-11232
▁绿	-11233
亲家	-11234
压缩	-11235
周年	-11236
审美	-11237
念念	-11238
跟我讲	-11239
干干净净	-11240
▁千万不要	-11241
丢下	-11242
之道	-11243
半点	-11244
员外	-11245
和王	-11246
家庄	-11247
探测	-11248
没来	-11249
进口	-11250
可以把	-11251
我们能	-11252
▁这一点	-11253
什么问题	-11254
从小到大	-11255
就是这么	-11256
三万	-11257
刚从	-11258
抑制	-11259
无事	-11260
治安	-11261
爹娘	-11262
省委	-11263
签了	-11264
高山	-11265
合理的	-11266
嫁给你	-11267
我还要	-11268
所以才	-11269
打鬼子	-11270
为您	-11271
元璋	-11272
同行	-11273
头儿	-11274
少林	-11275
慌张	-11276
权威	-11277
聪聪	-11278
自觉	-11279
▁哎这	-11280
▁来吧	-11281
你看我	-11282
我应该	-11283
现代化	-11284
▁在一个	-11285
跟你说过	-11286
却被	-11287
大国	-11288
强迫	-11289
晋级	-11290
替她	-11291
秋千	-11292
竖直	-11293
马龙	-11294
▁对他	-11295
▁是嘛	-11296
跳起来	-11297
这样说	-11298
睁开眼睛	-11299
不好意思啊	-11300
别急	-11301
十点	-11302
友好	-11303
杂交	-11304
水啊	-11305
▁哦那	-11306
上一个	-11307
的功能	-11308
的目的	-11309
▁姚	-11310
围巾	-11311
惨了	-11312
正规	-11313
▁啊你	-11314
是这么	-11315
的同学	-11316
▁他怎么	-11317
发生了什么	-11318
▁薛	-11319
农家	-11320
反省	-11321
复制	-11322
晚餐	-11323
脑筋	-11324
道具	-11325
遥远	-11326
隆家	-11327
了一家	-11328
你看你	-11329
典型的	-11330
如果说	-11331
学生的	-11332
就没了	-11333
时间了	-11334
特别多	-11335
跟你讲	-11336
▁这两个	-11337
到处都是	-11338
啊呃	-11339
大宝	-11340
恩怨	-11341
看似	-11342
组建	-11343
随即	-11344
▁奴才	-11345
仔细地	-11346
在水里	-11347
提出的	-11348
走了啊	-11349
过我的	-11350
很多人都	-11351
▁其实我觉得	-11352
一篇	-11353
会合	-11354
反思	-11355
收留	-11356
斯拉	-11357
解答	-11358
▁两人	-11359
▁出来	-11360
▁弟弟	-11361
开心地	-11362
自己在	-11363
觉得这	-11364
跟她说	-11365
是什么人	-11366
一战	-11367
标记	-11368
淡淡	-11369
生生	-11370
画像	-11371
见见	-11372
贝壳	-11373
边形	-11374
还蛮	-11375
完全是	-11376
的温度	-11377
黄鼠狼	-11378
▁我明天	-11379
变成了一个	-11380
也说	-11381
力度	-11382
嘎嘎	-11383
围剿	-11384
有名	-11385
臣妾	-11386
▁这钱	-11387
以后我	-11388
帮你们	-11389
的小孩	-11390
脖子上	-11391
露出了	-11392
都不一样	-11393
▁皇	-11394
▁谈	-11395
会更	-11396
去拿	-11397
墙壁	-11398
审查	-11399
忙的	-11400
提着	-11401
生机	-11402
老娘	-11403
职位	-11404
不好好	-11405
其它的	-11406
每个月	-11407
而来的	-11408
这一步	-11409
27	-11410
▁胖	-11411
光临	-11412
出行	-11413
她那	-11414
害了	-11415
工匠	-11416
所长	-11417
接应	-11418
潮湿	-11419
车站	-11420
何老师	-11421
古老的	-11422
啊还是	-11423
你的意思	-11424
之为	-11425
山区	-11426
指责	-11427
有不	-11428
下面的	-11429
也是在	-11430
送过去	-11431
▁我曾经	-11432
我也不会	-11433
我的朋友	-11434
▁汪	-11435
二的	-11436
体温	-11437
去玩	-11438
想出	-11439
意地	-11440
甜的	-11441
配方	-11442
▁一位	-11443
固定的	-11444
给你做	-11445
那小子	-11446
▁我觉得这个	-11447
民的	-11448
照着	-11449
用它	-11450
还很	-11451
▁就当	-11452
可能就	-11453
对方的	-11454
还是会	-11455
▁还可以	-11456
你自己的	-11457
▁城	-11458
事要	-11459
培育	-11460
大厦	-11461
想再	-11462
试着	-11463
▁大夫	-11464
▁是否	-11465
天下的	-11466
拼命地	-11467
直线运动	-11468
恶魔	-11469
潮流	-11470
祖母	-11471
起到	-11472
都非常	-11473
小朋友们	-11474
应该不会	-11475
之意	-11476
九百	-11477
住啊	-11478
四号	-11479
带兵	-11480
飘飘	-11481
一分钱	-11482
一大早	-11483
是一场	-11484
从来都没有	-11485
▁养	-11486
丛林	-11487
丢脸	-11488
两名	-11489
可可	-11490
园里	-11491
太狼	-11492
山林	-11493
师妹	-11494
条路	-11495
领袖	-11496
高温	-11497
▁三天	-11498
一直是	-11499
啊还有	-11500
氏集团	-11501
耽误了	-11502
跟我来	-11503
这个呃	-11504
▁等一下	-11505
▁老太太	-11506
最重要的是	-11507
出头	-11508
发烧	-11509
后他	-11510
室内	-11511
就此	-11512
张家	-11513
演过	-11514
看重	-11515
自作	-11516
里斯	-11517
了出去	-11518
在现场	-11519
的人是	-11520
▁你确定	-11521
▁看起来	-11522
告诉他们	-11523
是什么时候	-11524
两国	-11525
以此	-11526
低调	-11527
女王	-11528
姿态	-11529
日益	-11530
港口	-11531
火力	-11532
猩猩	-11533
没必要	-11534
▁你可别	-11535
▁我好像	-11536
啊我觉得	-11537
▁处	-11538
不为	-11539
情形	-11540
杯酒	-11541
盗窃	-11542
误差	-11543
财宝	-11544
▁几乎	-11545
▁通知	-11546
任何的	-11547
你们这	-11548
吓了一	-11549
见面了	-11550
▁他们都	-11551
对我们的	-11552
的那一天	-11553
不胜	-11554
公道	-11555
大街	-11556
导电	-11557
成人	-11558
极端	-11559
相助	-11560
选的	-11561
骂我	-11562
暴露了	-11563
极大的	-11564
深刻的	-11565
的身上	-11566
过一次	-11567
重大的	-11568
▁好我们	-11569
二月	-11570
吉祥	-11571
好啦	-11572
惊慌	-11573
打一	-11574
歧视	-11575
稍等	-11576
过河	-11577
高铁	-11578
的主人	-11579
足够的	-11580
这些话	-11581
不可思议	-11582
33	-11583
▁君	-11584
一滴	-11585
丛中	-11586
分了	-11587
小马	-11588
志敏	-11589
散发	-11590
树干	-11591
深夜	-11592
秀才	-11593
越快	-11594
▁看你	-11595
决定的	-11596
处理器	-11597
对不住	-11598
查清楚	-11599
老老实	-11600
▁是的我	-11601
▁这么大	-11602
▁这要是	-11603
二十四小时	-11604
▁潘	-11605
七岁	-11606
之战	-11607
九点	-11608
二次	-11609
便利	-11610
和的	-11611
指点	-11612
燃料	-11613
签订	-11614
落了	-11615
迷惑	-11616
顾虑	-11617
今天就	-11618
向我们	-11619
女儿的	-11620
我早就	-11621
男子汉	-11622
▁一个是	-11623
你是怎么	-11624
成了一个	-11625
▁戚	-11626
仇人	-11627
从他	-11628
啊来	-11629
富裕	-11630
广阔	-11631
慈善	-11632
教官	-11633
猎物	-11634
质的	-11635
道题	-11636
金刚	-11637
锅里	-11638
不断的	-11639
尽可能	-11640
的那么	-11641
着什么	-11642
▁这样吧	-11643
▁我们还是	-11644
▁拍	-11645
倒在	-11646
大型	-11647
妈的	-11648
宴会	-11649
小平	-11650
小路	-11651
搞定	-11652
橘子	-11653
累得	-11654
纠纷	-11655
起诉	-11656
▁就凭	-11657
我不敢	-11658
我看看	-11659
担心了	-11660
这里边	-11661
▁而不是	-11662
相互作用	-11663
▁可不是吗	-11664
▁然后我们	-11665
保管	-11666
各项	-11667
抵达	-11668
硬币	-11669
神话	-11670
辅助	-11671
进出	-11672
已经把	-11673
臭小子	-11674
中国女排	-11675
唠叨	-11676
学费	-11677
忍冬	-11678
有害	-11679
杠杆	-11680
脱了	-11681
西洋	-11682
货车	-11683
了你看	-11684
努力的	-11685
的水平	-11686
一直都是	-11687
不一样了	-11688
共产党的	-11689
▁展	-11690
五号	-11691
刑事	-11692
午饭	-11693
去办	-11694
可乐	-11695
守恒	-11696
富有	-11697
常见	-11698
春风	-11699
焦急	-11700
祈祷	-11701
腐败	-11702
过呀	-11703
▁你太	-11704
▁天哪	-11705
十一月	-11706
所以呢	-11707
▁这些都是	-11708
产物	-11709
吵吵	-11710
大喜	-11711
江西	-11712
洪水	-11713
澳门	-11714
算计	-11715
角的	-11716
请来	-11717
身世	-11718
转换	-11719
▁他有	-11720
▁死者	-11721
故意的	-11722
传统文化	-11723
但是我们	-11724
在我身上	-11725
▁崔	-11726
不绝	-11727
光源	-11728
又想	-11729
台北	-11730
哪能	-11731
基层	-11732
大娘	-11733
大桥	-11734
族人	-11735
毒药	-11736
▁可怜	-11737
一定很	-11738
了之后	-11739
回家去	-11740
心里有	-11741
独特的	-11742
秦始皇	-11743
更多的人	-11744
▁过了一会儿	-11745
不都	-11746
您要	-11747
理发	-11748
说嘛	-11749
高啊	-11750
太难了	-11751
往哪儿	-11752
是多么	-11753
▁年轻人	-11754
你是一个	-11755
你说什么	-11756
那天晚上	-11757
上楼	-11758
傻了	-11759
叮嘱	-11760
大河	-11761
守住	-11762
宣阳	-11763
意图	-11764
提琴	-11765
过节	-11766
做手术	-11767
好多人	-11768
还是我	-11769
都需要	-11770
▁我保证	-11771
NO	-11772
多吃	-11773
奶茶	-11774
自首	-11775
赛事	-11776
赞美	-11777
▁同样	-11778
一下吗	-11779
地球的	-11780
陪着你	-11781
▁咱们就	-11782
没有问题	-11783
▁但是这个	-11784
也没有什么	-11785
三大	-11786
主演	-11787
二爷	-11788
储存	-11789
地叫	-11790
宫女	-11791
我找	-11792
是老	-11793
脚的	-11794
西亚	-11795
转向	-11796
▁比赛	-11797
喜欢上	-11798
建立了	-11799
当事人	-11800
送到了	-11801
我都不知道	-11802
丧失	-11803
卧底	-11804
学姐	-11805
怀着	-11806
打完	-11807
我当然	-11808
珍贵的	-11809
的研究	-11810
不仅仅是	-11811
▁鼠	-11812
关东	-11813
圈套	-11814
天亮	-11815
此人	-11816
猛地	-11817
生子	-11818
肚皮	-11819
▁今后	-11820
个不停	-11821
就成了	-11822
▁我必须	-11823
▁那如果	-11824
知道这个	-11825
还有那个	-11826
▁喜	-11827
不惜	-11828
吗那	-11829
版本	-11830
眼下	-11831
窗帘	-11832
近了	-11833
通往	-11834
霹雳	-11835
▁学习	-11836
▁慢慢	-11837
不要脸	-11838
四个字	-11839
的老人	-11840
瞒着我	-11841
老师啊	-11842
这本书	-11843
透明的	-11844
好好照顾	-11845
图案	-11846
奇特	-11847
泥巴	-11848
源于	-11849
魔晶	-11850
▁许多	-11851
了很久	-11852
交朋友	-11853
漂亮啊	-11854
闭上眼睛	-11855
他吧	-11856
作证	-11857
停下	-11858
大佐	-11859
家家	-11860
您能	-11861
教的	-11862
机枪	-11863
湖边	-11864
耗子	-11865
▁一边	-11866
▁你给	-11867
▁奴婢	-11868
▁来来	-11869
上班了	-11870
不公平	-11871
了解到	-11872
动画片	-11873
得不到	-11874
的话题	-11875
▁还真是	-11876
不知不觉	-11877
吓了一跳	-11878
根本就没	-11879
业的	-11880
报的	-11881
描绘	-11882
清水	-11883
用品	-11884
老汉	-11885
▁可你	-11886
▁那里	-11887
不是要	-11888
回老家	-11889
小心点	-11890
很危险	-11891
感谢你	-11892
组织的	-11893
▁哎你们	-11894
一下子就	-11895
日本鬼子	-11896
越来越大	-11897
▁推	-11898
会去	-11899
医药	-11900
后门	-11901
呢它	-11902
回复	-11903
如意	-11904
有误	-11905
红雪	-11906
▁真正	-11907
一点啊	-11908
宝贝儿	-11909
找到的	-11910
有一座	-11911
清楚啊	-11912
的时刻	-11913
的长度	-11914
▁就是在	-11915
不是我的	-11916
行不行啊	-11917
一闪	-11918
六岁	-11919
功课	-11920
少的	-11921
总的	-11922
担保	-11923
换上	-11924
灭亡	-11925
转眼	-11926
镇的	-11927
别说了	-11928
三哥	-11929
买菜	-11930
唐代	-11931
正事	-11932
犹如	-11933
答道	-11934
苦苦	-11935
身手	-11936
▁你找	-11937
▁暂时	-11938
从一个	-11939
用的是	-11940
▁乙	-11941
乱的	-11942
了的	-11943
他才	-11944
是同	-11945
查看	-11946
消消	-11947
被捕	-11948
视为	-11949
赞成	-11950
▁欧阳	-11951
▁这场	-11952
半辈子	-11953
增加了	-11954
是我国	-11955
不起来了	-11956
帮助我们	-11957
我们这些	-11958
一个小小的	-11959
内能	-11960
刀子	-11961
另有	-11962
呢呃	-11963
哎你	-11964
天子	-11965
威力	-11966
巩固	-11967
来一	-11968
舆论	-11969
话剧	-11970
配置	-11971
▁保证	-11972
▁参加	-11973
▁所谓	-11974
▁结婚	-11975
▁这大	-11976
十一点	-11977
去一趟	-11978
天空中	-11979
您怎么	-11980
离开这里	-11981
56	-11982
▁民	-11983
吃吃	-11984
成正	-11985
所言	-11986
扇子	-11987
排放	-11988
无忌	-11989
爱护	-11990
突发	-11991
降临	-11992
▁把这	-11993
▁长得	-11994
保护你	-11995
只是个	-11996
看见你	-11997
进入到	-11998
为什么呀	-11999
▁所以我想	-12000
听完	-12001
咕噜	-12002
战国	-12003
挖掘	-12004
斯科	-12005
顾问	-12006
▁可这	-12007
我愿意	-12008
有三个	-12009
认识了	-12010
▁所以就	-12011
代谢	-12012
会说	-12013
将领	-12014
我打	-12015
星座	-12016
爹爹	-12017
腾讯	-12018
要比	-12019
▁出去	-12020
▁谁知	-12021
也喜欢	-12022
做不了	-12023
啊然后	-12024
▁你居然	-12025
▁就是他	-12026
的时候是	-12027
▁这个故事	-12028
县的	-12029
指使	-12030
母女	-12031
烧烤	-12032
课堂	-12033
走吗	-12034
辅导	-12035
进程	-12036
驴子	-12037
▁坚持	-12038
九十九	-12039
发脾气	-12040
安排的	-12041
接受了	-12042
晒太阳	-12043
自然界	-12044
让人家	-12045
高兴啊	-12046
我们不能	-12047
还有没有	-12048
▁应	-12049
代人	-12050
关闭	-12051
凉的	-12052
尚书	-12053
护送	-12054
指甲	-12055
改为	-12056
新生	-12057
清澈	-12058
的开	-12059
蟋蟀	-12060
请示	-12061
问过	-12062
防线	-12063
防范	-12064
▁社会	-12065
这是在	-12066
▁你是在	-12067
室的	-12068
小河	-12069
已是	-12070
扑通	-12071
拿钱	-12072
玲玲	-12073
遭受	-12074
我可是	-12075
正准备	-12076
点东西	-12077
这儿的	-12078
▁班	-12079
▁考	-12080
一言	-12081
反击	-12082
可要	-12083
向来	-12084
奉命	-12085
帝王	-12086
忙吧	-12087
来临	-12088
欣慰	-12089
等级	-12090
自责	-12091
贫穷	-12092
长久	-12093
会觉得	-12094
去世了	-12095
的地点	-12096
▁我就觉得	-12097
▁这是什么	-12098
▁亚	-12099
▁愿	-12100
上路	-12101
可没	-12102
向她	-12103
玩过	-12104
禀报	-12105
纵队	-12106
▁诸位	-12107
主人的	-12108
买一个	-12109
强烈的	-12110
交通事故	-12111
很久以前	-12112
五彩	-12113
军营	-12114
向下	-12115
小山	-12116
托付	-12117
牢牢	-12118
玩得	-12119
笨狼	-12120
豆子	-12121
迁徙	-12122
闹得	-12123
可以让	-12124
相应的	-12125
走过去	-12126
▁就没有	-12127
一天到晚	-12128
非常喜欢	-12129
军装	-12130
冰雪	-12131
刻度	-12132
咨询	-12133
四大	-12134
国之	-12135
在前	-12136
场了	-12137
她吗	-12138
宝钏	-12139
心动	-12140
所能	-12141
有病	-12142
素的	-12143
翻脸	-12144
要钱	-12145
赌博	-12146
队里	-12147
▁我到	-12148
一个字	-12149
了一顿	-12150
差一点	-12151
应该会	-12152
很不错	-12153
那你就	-12154
▁我昨天	-12155
我为什么	-12156
是不是你	-12157
什么时候能	-12158
丁丁	-12159
扶贫	-12160
次了	-12161
站了	-12162
都城	-12163
▁每当	-12164
三十年	-12165
也跟着	-12166
说那个	-12167
几个小时	-12168
我就知道	-12169
▁为什么不	-12170
▁我有一个	-12171
得怎么样了	-12172
▁叔	-12173
▁派	-12174
官方	-12175
拖着	-12176
琉璃	-12177
瞒着	-12178
红烧	-12179
船长	-12180
飞过	-12181
了一阵	-12182
他觉得	-12183
嫁给我	-12184
打交道	-12185
是自己	-12186
落下来	-12187
这么晚	-12188
跟你说了	-12189
不就完了吗	-12190
公英	-12191
冬眠	-12192
刷牙	-12193
履行	-12194
心血	-12195
直觉	-12196
美洲	-12197
追查	-12198
▁我连	-12199
也只能	-12200
些日子	-12201
我跟他	-12202
的角度	-12203
目的地	-12204
一块儿去	-12205
▁4	-12206
主管	-12207
嘴唇	-12208
排长	-12209
救出	-12210
死于	-12211
猕猴	-12212
阳台	-12213
▁整天	-12214
▁都有	-12215
件衣服	-12216
可能有	-12217
大家伙	-12218
过来看看	-12219
▁男	-12220
一谈	-12221
反悔	-12222
咳嗽	-12223
奇妙	-12224
她和	-12225
学到	-12226
振海	-12227
李白	-12228
玲珑	-12229
真理	-12230
面目	-12231
了一半	-12232
多小时	-12233
我们了	-12234
表现出	-12235
所以我就	-12236
▁众	-12237
▁岂	-12238
▁朝	-12239
不忘	-12240
兵团	-12241
几只	-12242
可笑	-12243
暗示	-12244
洗脸	-12245
牵连	-12246
祠堂	-12247
要出	-12248
吃饱了	-12249
怎么啦	-12250
细胞的	-12251
黄老师	-12252
▁这才是	-12253
收拾收拾	-12254
着自己的	-12255
▁草	-12256
不良	-12257
癌症	-12258
要你	-12259
▁吃完	-12260
了一位	-12261
你看这	-12262
四十五	-12263
操心了	-12264
的一生	-12265
说现在	-12266
超过了	-12267
那个大	-12268
▁这位是	-12269
一世	-12270
中年	-12271
认出	-12272
诚实	-12273
▁使用	-12274
▁在他	-12275
家里面	-12276
引起的	-12277
的大门	-12278
的时代	-12279
糊涂了	-12280
那种感觉	-12281
▁就在这时	-12282
在什么地方	-12283
▁克	-12284
▁姓	-12285
击败	-12286
压强	-12287
外套	-12288
子弟	-12289
学过	-12290
小海	-12291
曲子	-12292
案例	-12293
死地	-12294
瀑布	-12295
苏区	-12296
轿车	-12297
通信	-12298
通风	-12299
阻碍	-12300
▁现场	-12301
怀孕了	-12302
熟悉的	-12303
▁咦	-12304
张嘴	-12305
想来	-12306
滚动	-12307
蒸气	-12308
难为	-12309
个事儿	-12310
人民币	-12311
我问你	-12312
答案是	-12313
蒲公英	-12314
话说得	-12315
人民法院	-12316
做了什么	-12317
的时候了	-12318
Fe	-12319
啰嗦	-12320
当今	-12321
想找	-12322
狗的	-12323
白兔	-12324
真够	-12325
称号	-12326
穷人	-12327
至此	-12328
道个	-12329
▁人民	-12330
▁跟他	-12331
再给我	-12332
嫁给他	-12333
我看了	-12334
树上的	-12335
出了问题	-12336
听见没有	-12337
谢谢你们	-12338
高兴极了	-12339
▁小朋友们	-12340
专心	-12341
加坡	-12342
弄的	-12343
忍着	-12344
抽屉	-12345
无声	-12346
柔软	-12347
脆弱	-12348
陪他	-12349
领着	-12350
▁二哥	-12351
▁我等	-12352
从这里	-12353
到你的	-12354
帮他们	-12355
很难过	-12356
把东西	-12357
最小的	-12358
过多久	-12359
里的水	-12360
xy	-12361
上线	-12362
专注	-12363
境内	-12364
姑爷	-12365
婚纱	-12366
就问	-12367
新年	-12368
流星	-12369
疲惫	-12370
马尔	-12371
▁情况	-12372
▁简直	-12373
带孩子	-12374
放开我	-12375
的名义	-12376
认为是	-12377
非常高兴	-12378
个头	-12379
体谅	-12380
套路	-12381
得一	-12382
执法	-12383
明儿	-12384
正当	-12385
死吗	-12386
破解	-12387
▁导致	-12388
▁我更	-12389
▁没准	-12390
▁苹果	-12391
一天天	-12392
一样啊	-12393
的案子	-12394
▁所以这个	-12395
▁简	-12396
▁贝	-12397
口中	-12398
后人	-12399
学堂	-12400
山海	-12401
拦住	-12402
按摩	-12403
放出	-12404
牛的	-12405
称赞	-12406
西部	-12407
高于	-12408
▁行啊	-12409
▁请您	-12410
垃圾桶	-12411
小蚂蚁	-12412
把话说	-12413
提出来	-12414
那么久	-12415
▁他不会	-12416
干什么的	-12417
并不知道	-12418
是不可能	-12419
两岸	-12420
处在	-12421
家呀	-12422
对这	-12423
报到	-12424
掏出	-12425
真话	-12426
草的	-12427
那您	-12428
▁你听	-12429
▁您的	-12430
上一次	-12431
你还不	-12432
回了家	-12433
必要的	-12434
比较大	-12435
洗手间	-12436
离家出	-12437
说你的	-12438
▁于是我	-12439
的过程当中	-12440
你到	-12441
你吃	-12442
土的	-12443
疫苗	-12444
等候	-12445
达成	-12446
主要的	-12447
你说得	-12448
告诉你的	-12449
我们都是	-12450
乘坐	-12451
亲密	-12452
亲近	-12453
唱的	-12454
困扰	-12455
手表	-12456
是这	-12457
晶体	-12458
溶于	-12459
逮捕	-12460
部下	-12461
▁顺便	-12462
常见的	-12463
换衣服	-12464
摩擦力	-12465
跑出来	-12466
▁哦对了	-12467
▁大家好	-12468
然后就是	-12469
▁哈哈哈哈哈	-12470
产量	-12471
光芒	-12472
它有	-12473
室里	-12474
我倒	-12475
才好	-12476
气愤	-12477
笨蛋	-12478
行人	-12479
降水	-12480
的姑娘	-12481
在我们的	-12482
▁未	-12483
只剩	-12484
合伙	-12485
小雪	-12486
巫师	-12487
市的	-12488
收费	-12489
标本	-12490
治愈	-12491
沿海	-12492
白了	-12493
请了	-12494
中心的	-12495
再给你	-12496
去哪里	-12497
接电话	-12498
摄像头	-12499
站出来	-12500
还有一	-12501
项错误	-12502
默默地	-12503
任何事情	-12504
越来越好	-12505
军团	-12506
利息	-12507
吧嗯	-12508
宫廷	-12509
我爱	-12510
李娜	-12511
生动	-12512
答复	-12513
英勇	-12514
谷歌	-12515
踪迹	-12516
青龙	-12517
了一样	-12518
抑郁症	-12519
是一片	-12520
▁我也没	-12521
打个招呼	-12522
这种东西	-12523
万物	-12524
困境	-12525
安稳	-12526
打动	-12527
承包	-12528
突击	-12529
美金	-12530
船只	-12531
赛车	-12532
通话	-12533
闹着	-12534
零件	-12535
鸟类	-12536
▁中午	-12537
▁你连	-12538
小伙伴	-12539
没多久	-12540
这儿了	-12541
▁很多人	-12542
万岁	-12543
兵的	-12544
出道	-12545
前提	-12546
急诊	-12547
想我	-12548
掺和	-12549
赋予	-12550
轮到	-12551
通的	-12552
龙头	-12553
▁看了	-12554
▁要求	-12555
想让你	-12556
我还得	-12557
是对的	-12558
不识	-12559
主的	-12560
之急	-12561
再走	-12562
农场	-12563
吃肉	-12564
姗姗	-12565
安置	-12566
库里	-12567
府上	-12568
改了	-12569
潜水	-12570
直径	-12571
虚拟	-12572
造的	-12573
难怪	-12574
▁好嘞	-12575
对你们	-12576
拒绝了	-12577
爬起来	-12578
的空间	-12579
的那天	-12580
运动会	-12581
找到一个	-12582
有什么用啊	-12583
一觉	-12584
九个	-12585
你找	-12586
哆嗦	-12587
学历	-12588
把车	-12589
的热	-12590
老伴	-12591
追逐	-12592
造反	-12593
都用	-12594
▁这也	-12595
下一次	-12596
国王的	-12597
她们的	-12598
那都是	-12599
银行卡	-12600
一个孩子	-12601
高兴地说	-12602
▁我们不能	-12603
▁你为什么不	-12604
▁世	-12605
▁兴	-12606
▁数	-12607
化成	-12608
念叨	-12609
敬佩	-12610
日里	-12611
晴天	-12612
木匠	-12613
浇水	-12614
阴阳	-12615
之后的	-12616
出去吧	-12617
出来吧	-12618
弄清楚	-12619
还没到	-12620
▁现在就	-12621
▁这这这	-12622
怎么样呢	-12623
一亮	-12624
乐队	-12625
古董	-12626
废弃	-12627
我大	-12628
方针	-12629
条纹	-12630
泰山	-12631
牵着	-12632
迷藏	-12633
鲜肉	-12634
▁依据	-12635
▁这帮	-12636
大本营	-12637
的主题	-12638
系统的	-12639
那儿去	-12640
▁你爸爸	-12641
没有这个	-12642
▁可不是嘛	-12643
五位	-12644
元的	-12645
八戒	-12646
几千	-12647
小军	-12648
展览	-12649
想做	-12650
拿的	-12651
灭口	-12652
表妹	-12653
语气	-12654
那场	-12655
先进的	-12656
发布会	-12657
走到了	-12658
就是就是	-12659
个屁	-12660
优惠	-12661
使人	-12662
又来	-12663
呆呆	-12664
哗哗	-12665
无缘	-12666
核实	-12667
看待	-12668
锦绣	-12669
院士	-12670
不仅是	-12671
不到了	-12672
▁庄	-12673
会让	-12674
哗啦	-12675
子就	-12676
尽情	-12677
巅峰	-12678
损伤	-12679
狼狈	-12680
的太	-12681
谁谁	-12682
了一座	-12683
啊我也	-12684
特别大	-12685
的人民	-12686
部队的	-12687
什么关系	-12688
有什么事情	-12689
之物	-12690
住处	-12691
你吧	-12692
明日	-12693
气息	-12694
活跃	-12695
赞助	-12696
▁白天	-12697
和发展	-12698
打死了	-12699
错了我	-12700
留在这儿	-12701
▁但是如果	-12702
▁替	-12703
▁种	-12704
一连	-12705
十字	-12706
可谓	-12707
后再	-12708
哭声	-12709
想好	-12710
潜入	-12711
▁手机	-12712
你还有	-12713
几分钟	-12714
它这个	-12715
我最近	-12716
漫长的	-12717
的准备	-12718
的社会	-12719
▁哎对了	-12720
▁那都是	-12721
可以可以	-12722
▁可是我们	-12723
▁这段时间	-12724
交警	-12725
停在	-12726
口罩	-12727
听从	-12728
场地	-12729
有谁	-12730
淳于	-12731
火柴	-12732
疼了	-12733
第七	-12734
价值的	-12735
发动机	-12736
可能要	-12737
失踪了	-12738
就那么	-12739
我我我	-12740
都给你	-12741
错过了	-12742
交给你了	-12743
那么多钱	-12744
发现了一个	-12745
与他	-12746
别提	-12747
家大	-12748
棕熊	-12749
番话	-12750
管用	-12751
越长	-12752
那他	-12753
面粉	-12754
▁太后	-12755
▁都在	-12756
从这儿	-12757
搞什么	-12758
真是的	-12759
安排好了	-12760
▁福	-12761
三星	-12762
协会	-12763
南昌	-12764
参见	-12765
城墙	-12766
就和	-12767
痒痒	-12768
腾腾	-12769
要让	-12770
过敏	-12771
那份	-12772
都比	-12773
▁拿着	-12774
▁那时	-12775
个电话	-12776
也都是	-12777
二十二	-12778
你怎么能	-12779
兄弟姐妹	-12780
周旋	-12781
尺寸	-12782
布局	-12783
想当	-12784
我姐	-12785
打点	-12786
搜集	-12787
那不	-12788
▁哀家	-12789
▁重新	-12790
啊不是	-12791
怎么去	-12792
的最高	-12793
的而且	-12794
维生素	-12795
跟我妈	-12796
得好好的	-12797
▁我觉得你	-12798
▁猴	-12799
争论	-12800
企鹅	-12801
例外	-12802
侥幸	-12803
冒充	-12804
可有	-12805
好大	-12806
好汉	-12807
守卫	-12808
总管	-12809
恰当	-12810
意愿	-12811
拳头	-12812
架子	-12813
游去	-12814
炮弹	-12815
皇家	-12816
章鱼	-12817
被杀	-12818
见她	-12819
过多	-12820
逼我	-12821
野心	-12822
▁主任	-12823
▁你少	-12824
▁这小	-12825
了我得	-12826
创造了	-12827
都会有	-12828
就知道了	-12829
还是一个	-12830
▁枪	-12831
七点	-12832
三省	-12833
信了	-12834
复原	-12835
工地	-12836
没准	-12837
红柿	-12838
设想	-12839
难了	-12840
一九四	-12841
不好吗	-12842
为你们	-12843
我们把	-12844
放大镜	-12845
给了他	-12846
首先要	-12847
▁其实我们	-12848
▁思考哪些	-12849
▁入	-12850
上边	-12851
串联	-12852
们在	-12853
喝完	-12854
宝物	-12855
店铺	-12856
强行	-12857
投靠	-12858
构建	-12859
温馨	-12860
累的	-12861
▁吃饭	-12862
▁当我	-12863
不进去	-12864
了一段	-12865
他真的	-12866
党中央	-12867
可以了	-12868
吧就是	-12869
周恩来	-12870
案发现	-12871
的成绩	-12872
还好吧	-12873
便于	-12874
写出	-12875
包里	-12876
发报	-12877
指令	-12878
系的	-12879
长出	-12880
▁干嘛	-12881
▁跟着	-12882
了一年	-12883
呢其实	-12884
回来吧	-12885
的下落	-12886
▁建	-12887
扬州	-12888
搞的	-12889
自转	-12890
调到	-12891
黑白	-12892
▁这份	-12893
三十万	-12894
企业家	-12895
休息了	-12896
全新的	-12897
反映了	-12898
我肯定	-12899
看着你	-12900
藏起来	-12901
▁我每天	-12902
别的办法	-12903
这个消息	-12904
▁洗	-12905
▁霍	-12906
一旁	-12907
三爷	-12908
个数	-12909
之计	-12910
修理	-12911
当当	-12912
最强	-12913
赶着	-12914
青菜	-12915
回来呢	-12916
捉迷藏	-12917
是那么	-12918
2019	-12919
▁不管是	-12920
▁我看了	-12921
▁董事长	-12922
不知道吗	-12923
别的地方	-12924
▁有的时候	-12925
▁闻	-12926
一台	-12927
人对	-12928
出海	-12929
副官	-12930
发愁	-12931
圆形	-12932
夏季	-12933
捕食	-12934
教会	-12935
西湖	-12936
过人	-12937
顶着	-12938
首饰	-12939
▁嘿嘿	-12940
▁声音	-12941
以后的	-12942
得怎么样	-12943
▁我是一个	-12944
后续	-12945
后院	-12946
尽心	-12947
山谷	-12948
武魂	-12949
监管	-12950
绕着	-12951
记性	-12952
追踪	-12953
都吃	-12954
▁以下	-12955
十八岁	-12956
帮帮我	-12957
笑起来	-12958
跟你一起	-12959
迫不及待地	-12960
所学知识可知	-12961
▁陶	-12962
两块	-12963
动量	-12964
小麦	-12965
是挺	-12966
照射	-12967
直升	-12968
眯眯	-12969
老伯	-12970
▁由此	-12971
不满意	-12972
你来了	-12973
我现在就	-12974
▁轻	-12975
变小	-12976
吓人	-12977
圈子	-12978
机票	-12979
看呢	-12980
网吧	-12981
考上	-12982
表姐	-12983
青铜	-12984
麻将	-12985
他也是	-12986
啊我是	-12987
妃娘娘	-12988
尽快地	-12989
张学良	-12990
心里头	-12991
怎么又	-12992
查一下	-12993
▁你马上	-12994
▁植物的	-12995
好好学习	-12996
▁读	-12997
功臣	-12998
勃勃	-12999
协商	-13000
扔了	-13001
流泪	-13002
石灰	-13003
缩小	-13004
耐烦	-13005
车厢	-13006
风声	-13007
▁说你	-13008
他们了	-13009
是如何	-13010
电路中	-13011
领导的	-13012
做错	-13013
哇哇	-13014
巴西	-13015
帅气	-13016
晓君	-13017
特种	-13018
订婚	-13019
凸透镜	-13020
头上的	-13021
就在这	-13022
我也有	-13023
我们还	-13024
笨笨熊	-13025
▁但是她	-13026
▁必须要	-13027
一直都在	-13028
动员	-13029
去吗	-13030
去问	-13031
探讨	-13032
职工	-13033
▁一条	-13034
▁哎那	-13035
▁我用	-13036
下去吧	-13037
就是很	-13038
很好奇	-13039
有个人	-13040
等着你	-13041
这样吗	-13042
▁无论是	-13043
做好准备	-13044
▁俗	-13045
▁甄	-13046
一枚	-13047
上任	-13048
业绩	-13049
优雅	-13050
可好	-13051
图像	-13052
帐篷	-13053
拉开	-13054
挫折	-13055
掌控	-13056
文人	-13057
自尊	-13058
闹的	-13059
RNA	-13060
▁加上	-13061
上海的	-13062
不觉得	-13063
也需要	-13064
去寻找	-13065
另一种	-13066
我想要	-13067
我来了	-13068
说话呀	-13069
▁二零零	-13070
▁我虽然	-13071
▁那肯定	-13072
也是一种	-13073
一十	-13074
一瓶	-13075
人性	-13076
停停	-13077
帅了	-13078
炸了	-13079
积蓄	-13080
芝麻	-13081
▁传说	-13082
不希望	-13083
不远处	-13084
从哪里	-13085
就完了	-13086
李老师	-13087
的事件	-13088
的话他	-13089
▁小伙子	-13090
也不可能	-13091
锻炼身体	-13092
▁我们一起	-13093
典型	-13094
品种	-13095
就该	-13096
年底	-13097
总要	-13098
掉进	-13099
新郎	-13100
献给	-13101
眨眼	-13102
石子	-13103
给弄	-13104
节课	-13105
豹子	-13106
迷糊	-13107
▁就得	-13108
来源于	-13109
的目标	-13110
还是得	-13111
▁不是说	-13112
▁他没有	-13113
一个人在	-13114
心情不好	-13115
▁我们都是	-13116
▁我觉得他	-13117
▁宗	-13118
低下	-13119
手臂	-13120
杀你	-13121
海中	-13122
炫耀	-13123
猪肉	-13124
翻身	-13125
警长	-13126
过山	-13127
重任	-13128
隔离	-13129
难听	-13130
露面	-13131
霸道	-13132
也可能	-13133
知道她	-13134
这么高	-13135
青少年	-13136
▁这里的	-13137
的那一刻	-13138
身边的人	-13139
▁行了行了	-13140
▁那为什么	-13141
根本就不是	-13142
两头	-13143
借着	-13144
小象	-13145
渗透	-13146
疑点	-13147
笑得	-13148
鸡汤	-13149
▁命令	-13150
▁小小	-13151
不客气	-13152
个小时	-13153
也没用	-13154
前面的	-13155
努力地	-13156
开心了	-13157
漂亮了	-13158
确实很	-13159
▁小蚂蚁	-13160
很重要的	-13161
然后我们	-13162
这种感觉	-13163
一聊	-13164
五天	-13165
倾斜	-13166
凑合	-13167
号称	-13168
天衣	-13169
强了	-13170
当下	-13171
情怀	-13172
江河	-13173
烟花	-13174
赶路	-13175
车了	-13176
遵循	-13177
饱和	-13178
▁这张	-13179
不存在	-13180
不答应	-13181
你也别	-13182
分手了	-13183
我是谁	-13184
死者的	-13185
研究所	-13186
赢得了	-13187
▁我突然	-13188
的话就是	-13189
综艺节目	-13190
▁唱	-13191
代言	-13192
再有	-13193
厨子	-13194
吃苦	-13195
尖的	-13196
尽头	-13197
掩盖	-13198
淘淘	-13199
点小	-13200
胞胎	-13201
▁乌鸦	-13202
▁似乎	-13203
▁出了	-13204
听说你	-13205
和你说	-13206
在身上	-13207
得了吗	-13208
我爸爸	-13209
生活了	-13210
的物体	-13211
这样呢	-13212
▁我是来	-13213
▁我说的	-13214
你就可以	-13215
看得出来	-13216
▁没有什么	-13217
刑警	-13218
到此	-13219
去把	-13220
参照	-13221
商议	-13222
声秋	-13223
差的	-13224
离去	-13225
评委	-13226
▁夏天	-13227
▁电话	-13228
不是他	-13229
很生气	-13230
有名的	-13231
结了婚	-13232
讲的是	-13233
都来了	-13234
回来的时候	-13235
▁启	-13236
▁够	-13237
▁昨	-13238
主观	-13239
印刷	-13240
号召	-13241
各有	-13242
嘛就	-13243
如下	-13244
房东	-13245
演了	-13246
直角	-13247
芦苇	-13248
落叶	-13249
赶出	-13250
主义的	-13251
出去啊	-13252
厚厚的	-13253
各方面	-13254
小青蛙	-13255
未婚妻	-13256
每一天	-13257
甜甜的	-13258
背后的	-13259
▁我特别	-13260
的一句话	-13261
乐的	-13262
分头	-13263
哥们	-13264
埃及	-13265
声明	-13266
我带	-13267
打探	-13268
文武	-13269
时空	-13270
棍子	-13271
用途	-13272
的王	-13273
饥饿	-13274
▁导演	-13275
▁蚂蚁	-13276
也来了	-13277
▁我有个	-13278
▁你说什么	-13279
上你	-13280
倾向	-13281
又好	-13282
天涯	-13283
怎能	-13284
早有	-13285
暗暗	-13286
法治	-13287
许诺	-13288
预防	-13289
颜六	-13290
一系列	-13291
夫人的	-13292
担心你	-13293
赶紧走	-13294
一不小心	-13295
回到家里	-13296
两侧	-13297
乃是	-13298
侄子	-13299
激励	-13300
熟了	-13301
盼着	-13302
起伏	-13303
青山	-13304
▁医院	-13305
▁明白	-13306
▁这只	-13307
了口气	-13308
二十一	-13309
喜欢她	-13310
地下党	-13311
对了我	-13312
经纪人	-13313
那一刻	-13314
这方面的	-13315
on	-13316
下棋	-13317
东风	-13318
事吗	-13319
儒家	-13320
吱吱	-13321
寻求	-13322
层次	-13323
损害	-13324
有利	-13325
看清	-13326
设立	-13327
走近	-13328
青岛	-13329
▁不好	-13330
▁把她	-13331
▁老天	-13332
做到了	-13333
啊我就	-13334
就直接	-13335
村民们	-13336
活动的	-13337
的公司	-13338
的可能	-13339
自身的	-13340
马克思	-13341
▁就是这个	-13342
▁我为什么	-13343
▁口	-13344
一死	-13345
不宜	-13346
之旅	-13347
也对	-13348
宝剑	-13349
感叹	-13350
早了	-13351
条约	-13352
河西	-13353
激发	-13354
观测	-13355
试管	-13356
随身	-13357
▁专门	-13358
▁天气	-13359
▁就把	-13360
会产生	-13361
伤心的	-13362
地回答	-13363
抢走了	-13364
比赛吗	-13365
哭了起来	-13366
大学毕业	-13367
对不起你	-13368
就是他们	-13369
所以这个	-13370
这么想的	-13371
成这个样子	-13372
最好的朋友	-13373
▁顺	-13374
亲情	-13375
入侵	-13376
六点	-13377
带动	-13378
我俩	-13379
打起	-13380
明亮	-13381
欢欢	-13382
田里	-13383
起舞	-13384
▁你瞧	-13385
▁里边	-13386
一定得	-13387
草丛里	-13388
那边的	-13389
需要我	-13390
▁毛泽东	-13391
▁选项中	-13392
你放心吧	-13393
我们没有	-13394
重要的事情	-13395
下载	-13396
争议	-13397
伏击	-13398
冲冲	-13399
变革	-13400
叫小	-13401
啊还	-13402
平了	-13403
弄到	-13404
当晚	-13405
晕了	-13406
牢里	-13407
的还	-13408
老刘	-13409
贸然	-13410
越是	-13411
▁但这	-13412
▁你个	-13413
三分钟	-13414
你可别	-13415
分子的	-13416
司令员	-13417
很久了	-13418
草原上	-13419
丝绸之路	-13420
怎么会有	-13421
▁从此以后	-13422
跟你在一起	-13423
▁索	-13424
主子	-13425
名人	-13426
和人	-13427
咔嚓	-13428
崽子	-13429
有缘	-13430
西装	-13431
迟迟	-13432
集结	-13433
▁不敢	-13434
▁有请	-13435
也觉得	-13436
▁前两天	-13437
我是不是	-13438
生命危险	-13439
▁素	-13440
了钱	-13441
倒好	-13442
听他	-13443
呀是	-13444
大使	-13445
常年	-13446
得慌	-13447
游玩	-13448
线路	-13449
野外	-13450
你是谁	-13451
可以做	-13452
就变成	-13453
就只有	-13454
想要的	-13455
甘情愿	-13456
的歌声	-13457
老头子	-13458
▁我平时	-13459
一件事儿	-13460
三口	-13461
作物	-13462
你很	-13463
化为	-13464
向量	-13465
哼哼	-13466
在吗	-13467
她去	-13468
棋子	-13469
清朝	-13470
私自	-13471
走开	-13472
▁倘若	-13473
会出现	-13474
你最近	-13475
夫妻俩	-13476
把你当	-13477
汉武帝	-13478
看到我	-13479
第三次	-13480
短的时间	-13481
▁我这个人	-13482
▁独	-13483
▁饭	-13484
主公	-13485
内奸	-13486
刘备	-13487
否定	-13488
技艺	-13489
指南	-13490
检讨	-13491
毫米	-13492
用过	-13493
笼子	-13494
管他	-13495
自称	-13496
身亡	-13497
金条	-13498
▁制作	-13499
▁我劝	-13500
▁那可	-13501
在外边	-13502
坐这儿	-13503
基本的	-13504
她不是	-13505
学习的	-13506
开始的	-13507
比以前	-13508
告诉我的	-13509
以待	-13510
啥事	-13511
懂了	-13512
木板	-13513
漏洞	-13514
谣言	-13515
鸦片	-13516
▁那样	-13517
同志的	-13518
庞大的	-13519
的意义	-13520
磁铁的	-13521
花园里	-13522
陪你去	-13523
▁可是这	-13524
▁还不如	-13525
▁我们这个	-13526
▁宁	-13527
个字	-13528
也给	-13529
二楼	-13530
四千	-13531
娶了	-13532
已被	-13533
所作	-13534
挽回	-13535
救护	-13536
求情	-13537
物流	-13538
相貌	-13539
示范	-13540
祭祀	-13541
观音	-13542
一直没	-13543
好了啊	-13544
混合物	-13545
跟我爸	-13546
▁我就不	-13547
▁爸爸妈妈	-13548
▁还有那个	-13549
▁这个地方	-13550
加以	-13551
叫作	-13552
嘉诚	-13553
圆满	-13554
学学	-13555
开拓	-13556
打他	-13557
抵押	-13558
时分	-13559
梳理	-13560
注册	-13561
破绽	-13562
而起	-13563
虚弱	-13564
融化	-13565
课本	-13566
转了	-13567
邮件	-13568
▁时候	-13569
不好看	-13570
不对劲	-13571
二十多	-13572
仅仅是	-13573
受伤的	-13574
如果有	-13575
很高的	-13576
提高了	-13577
真的挺	-13578
还会有	-13579
长得很	-13580
不用担心	-13581
愿不愿意	-13582
专利	-13583
冷了	-13584
卖的	-13585
危急	-13586
去吃	-13587
底部	-13588
心头	-13589
怕是	-13590
悲痛	-13591
扔到	-13592
断定	-13593
是哪	-13594
要给	-13595
一样吗	-13596
你都不	-13597
完成的	-13598
忘了我	-13599
是谁呢	-13600
的地位	-13601
的实力	-13602
还有人	-13603
▁干什么	-13604
▁我需要	-13605
偷了	-13606
品如	-13607
嗡嗡	-13608
地跑	-13609
瞎子	-13610
破产	-13611
级别	-13612
网红	-13613
酸性	-13614
香气	-13615
lin	-13616
▁站在	-13617
东西了	-13618
人就是	-13619
利用了	-13620
说话的	-13621
我们公司	-13622
不喝	-13623
不看	-13624
作对	-13625
向了	-13626
宝贵	-13627
打理	-13628
毛衣	-13629
瓷器	-13630
皮鞋	-13631
骨肉	-13632
▁争取	-13633
不着急	-13634
受欢迎	-13635
和孩子	-13636
回去啊	-13637
姑娘的	-13638
找工作	-13639
掌握了	-13640
称之为	-13641
▁我是想	-13642
应该就是	-13643
睡不着觉	-13644
▁你凭什么	-13645
也看	-13646
仁杰	-13647
从良	-13648
制成	-13649
后又	-13650
总体	-13651
摇了	-13652
收养	-13653
畜生	-13654
精致	-13655
能做	-13656
踪影	-13657
面具	-13658
鲜艳	-13659
▁但你	-13660
▁咱家	-13661
▁日子	-13662
就够了	-13663
应该在	-13664
▁你把我	-13665
不了多久	-13666
中共中央	-13667
▁鬼	-13668
不自	-13669
乱跑	-13670
人头	-13671
但在	-13672
使他	-13673
典礼	-13674
冲锋	-13675
力地	-13676
因而	-13677
怀抱	-13678
狗狗	-13679
珊瑚	-13680
走啦	-13681
越小	-13682
车间	-13683
顶多	-13684
善良的	-13685
地走了	-13686
照顾我	-13687
的决定	-13688
的部分	-13689
▁你那个	-13690
▁小鬼子	-13691
修辞	-13692
古老	-13693
彩票	-13694
我吃	-13695
招牌	-13696
接收	-13697
毛巾	-13698
破烂	-13699
警戒	-13700
躺下	-13701
郎中	-13702
非凡	-13703
首都	-13704
骑士	-13705
▁一看	-13706
▁决定	-13707
为了你	-13708
乖乖地	-13709
忘了你	-13710
支持你	-13711
有一百	-13712
树枝上	-13713
的也是	-13714
程度上	-13715
▁奥	-13716
你敢	-13717
医术	-13718
南海	-13719
太宗	-13720
小雨	-13721
摔倒	-13722
最最	-13723
轮流	-13724
▁政府	-13725
和我的	-13726
我听说	-13727
走了我	-13728
▁剩下的	-13729
一场比赛	-13730
有意思的	-13731
上述	-13732
下毒	-13733
口子	-13734
均为	-13735
投诉	-13736
比试	-13737
活得	-13738
蓝的	-13739
黄瓜	-13740
▁你哥	-13741
▁此次	-13742
了好久	-13743
他是个	-13744
吃饭啊	-13745
就特别	-13746
谈一谈	-13747
问问你	-13748
▁大灰狼	-13749
成这样了	-13750
目的就是	-13751
这么简单	-13752
▁完	-13753
不计	-13754
出兵	-13755
出席	-13756
咱这	-13757
忽悠	-13758
愣着	-13759
拉克	-13760
是您	-13761
法术	-13762
祸害	-13763
药材	-13764
装着	-13765
论证	-13766
详解	-13767
谁会	-13768
高层	-13769
▁有时	-13770
过什么	-13771
逃走了	-13772
▁我们有	-13773
你还记得	-13774
其中一个	-13775
太厉害了	-13776
我们就是	-13777
有很多的	-13778
测量工具	-13779
这个女人	-13780
非常重要的	-13781
▁共	-13782
▁工	-13783
养生	-13784
命中	-13785
安东	-13786
开封	-13787
拖延	-13788
搭理	-13789
步伐	-13790
法力	-13791
爱她	-13792
爷您	-13793
版的	-13794
的去	-13795
真没	-13796
睡在	-13797
自立	-13798
西边	-13799
解药	-13800
警备	-13801
诬陷	-13802
▁中华	-13803
不在了	-13804
小姐的	-13805
意义的	-13806
添麻烦	-13807
笑眯眯	-13808
结束后	-13809
让孩子	-13810
书上	-13811
发觉	-13812
外号	-13813
摆在	-13814
李小	-13815
长征	-13816
一直想	-13817
你这种	-13818
哈尔滨	-13819
圆圆的	-13820
找到他	-13821
新闻吗	-13822
的父母	-13823
主要考查	-13824
希望能够	-13825
29	-13826
▁竟	-13827
入口	-13828
妞妞	-13829
幸亏	-13830
弹性	-13831
很深	-13832
心哪	-13833
既是	-13834
昼夜	-13835
松树	-13836
波长	-13837
着火	-13838
礼仪	-13839
纸带	-13840
美了	-13841
蝌蚪	-13842
▁几天	-13843
▁当你	-13844
▁才是	-13845
一般人	-13846
压根儿	-13847
带回家	-13848
的尸体	-13849
▁我看见	-13850
二十多年	-13851
上当	-13852
了又	-13853
慈禧	-13854
改成	-13855
的人员	-13856
答应过	-13857
希望你能	-13858
的好朋友	-13859
▁你说的是	-13860
▁血	-13861
义父	-13862
伯父	-13863
咸阳	-13864
巡捕	-13865
有理	-13866
毁灭	-13867
沉重	-13868
都去	-13869
▁不像	-13870
失望了	-13871
实力的	-13872
新加坡	-13873
杀死了	-13874
的事吗	-13875
知道这	-13876
▁当然了	-13877
▁快快快	-13878
▁每一个	-13879
▁那他们	-13880
你告诉我	-13881
力的作用	-13882
我也没有	-13883
的可能性	-13884
说不清楚	-13885
关机	-13886
出征	-13887
发型	-13888
嘉佑	-13889
孙杨	-13890
掉到	-13891
机长	-13892
演绎	-13893
真不	-13894
空了	-13895
较小	-13896
迹象	-13897
阻拦	-13898
麒麟	-13899
▁女孩	-13900
孩子了	-13901
来了吗	-13902
的最后	-13903
老师好	-13904
问题是	-13905
▁你们就	-13906
今天这个	-13907
▁我又不是	-13908
内外	-13909
啪啪	-13910
大厅	-13911
寻思	-13912
往常	-13913
抢了	-13914
收回	-13915
救他	-13916
荡荡	-13917
问的	-13918
食盐	-13919
战士们	-13920
把所有	-13921
的地下	-13922
质量为	-13923
▁你说他	-13924
▁告诉你	-13925
小动物们	-13926
七号	-13927
光是	-13928
啊她	-13929
大方	-13930
开来	-13931
打出	-13932
无敌	-13933
沙沙	-13934
被动	-13935
通行	-13936
▁多亏	-13937
▁对方	-13938
▁生物	-13939
▁研究	-13940
▁等他	-13941
买了一	-13942
交出来	-13943
你妈妈	-13944
关系到	-13945
动不动	-13946
宪兵队	-13947
微生物	-13948
着急了	-13949
经济的	-13950
魔法师	-13951
这么厉害	-13952
▁修	-13953
万的	-13954
之和	-13955
出击	-13956
吧这	-13957
峡谷	-13958
所用	-13959
执着	-13960
据点	-13961
王大	-13962
誉为	-13963
跳跃	-13964
黑猫	-13965
▁全国	-13966
二少爷	-13967
五颜六	-13968
地说道	-13969
先是	-13970
呼唤	-13971
寄托	-13972
归于	-13973
心肠	-13974
无处	-13975
杉杉	-13976
海鲜	-13977
火山	-13978
绵羊	-13979
罪犯	-13980
连的	-13981
高低	-13982
▁这要	-13983
不过他	-13984
原谅我	-13985
好几次	-13986
所以你	-13987
手上的	-13988
的一块	-13989
哺乳	-13990
实质	-13991
胚胎	-13992
花开	-13993
装了	-13994
诊所	-13995
▁好久	-13996
▁房子	-13997
外面的	-13998
涉及到	-13999
来到这里	-14000
八千	-14001
夕阳	-14002
小草	-14003
想你	-14004
扫地	-14005
被她	-14006
觅食	-14007
订单	-14008
追上	-14009
钦差	-14010
▁小明	-14011
受委屈	-14012
咖啡馆	-14013
在前面	-14014
跟自己	-14015
▁如果你不	-14016
下楼	-14017
养分	-14018
后方	-14019
咒语	-14020
啊要	-14021
复合	-14022
她呢	-14023
得快	-14024
性情	-14025
抓起	-14026
摆的	-14027
歌舞	-14028
歌词	-14029
清华	-14030
理性	-14031
盟主	-14032
英子	-14033
证件	-14034
运河	-14035
隆重	-14036
▁你家	-14037
▁我爱	-14038
上课了	-14039
中的小	-14040
它可以	-14041
爷爷的	-14042
顺利地	-14043
▁既然你	-14044
到了这个	-14045
皇后娘娘	-14046
人格	-14047
人要	-14048
伤势	-14049
关在	-14050
出轨	-14051
北斗	-14052
南下	-14053
她想	-14054
将要	-14055
引入	-14056
排斥	-14057
热搜	-14058
管你	-14059
紧密	-14060
莫莉	-14061
诉求	-14062
追杀	-14063
阵阵	-14064
黄牛	-14065
▁哎哟	-14066
▁快去	-14067
不由得	-14068
先生您	-14069
快走吧	-14070
成年人	-14071
我以后	-14072
求你了	-14073
派来的	-14074
电动车	-14075
的结构	-14076
出来的时候	-14077
小心翼翼地	-14078
▁调	-14079
一郎	-14080
丰收	-14081
出路	-14082
大意	-14083
必有	-14084
服了	-14085
武术	-14086
狗熊	-14087
着点	-14088
糊弄	-14089
防备	-14090
120	-14091
▁很久	-14092
两句话	-14093
大日本	-14094
董事会	-14095
▁你还要	-14096
AT	-14097
一幅	-14098
作风	-14099
先锋	-14100
到尾	-14101
务院	-14102
卖掉	-14103
声声	-14104
奉天	-14105
妇人	-14106
导游	-14107
新兵	-14108
来吃	-14109
毛驴	-14110
热带	-14111
运到	-14112
龙虾	-14113
只是想	-14114
家人的	-14115
感到很	-14116
找出来	-14117
新时代	-14118
没有我	-14119
然后把	-14120
的定义	-14121
▁你既然	-14122
▁蒋介石	-14123
就不一样	-14124
慢点慢点	-14125
发酵	-14126
她有	-14127
安定	-14128
小镇	-14129
尼亚	-14130
平的	-14131
年后	-14132
撞击	-14133
海龟	-14134
清明	-14135
胜负	-14136
雪人	-14137
领了	-14138
▁我打	-14139
了下去	-14140
土地上	-14141
放不下	-14142
的食物	-14143
祖国的	-14144
神秘的	-14145
▁小青蛙	-14146
不容易啊	-14147
另一方面	-14148
啊什么的	-14149
的小姑娘	-14150
非常好的	-14151
这么多年了	-14152
份儿	-14153
发掘	-14154
大神	-14155
安徽	-14156
将它	-14157
小树	-14158
开开	-14159
开讲	-14160
早期	-14161
是没	-14162
杂质	-14163
经费	-14164
说别	-14165
说哎	-14166
长老	-14167
陆地	-14168
饭了	-14169
▁但愿	-14170
▁班长	-14171
▁说得	-14172
只要一	-14173
啊都是	-14174
大眼睛	-14175
影响到	-14176
心里边	-14177
拿回来	-14178
看清楚	-14179
老年人	-14180
转移到	-14181
远远地	-14182
▁她就是	-14183
一下这个	-14184
已经没有	-14185
却不	-14186
平民	-14187
烈火	-14188
疲劳	-14189
真能	-14190
行程	-14191
越远	-14192
▁不信	-14193
▁昨晚	-14194
▁英国	-14195
▁路上	-14196
您说的	-14197
有一颗	-14198
的电压	-14199
看你的	-14200
金色的	-14201
▁怎么就	-14202
▁我和你	-14203
▁我这一	-14204
▁有可能	-14205
▁给我们	-14206
▁那你是	-14207
它是一个	-14208
▁宫	-14209
▁流	-14210
习俗	-14211
和刘	-14212
太医	-14213
拆迁	-14214
柜子	-14215
还小	-14216
也不太	-14217
交给了	-14218
坐坐坐	-14219
杀人的	-14220
激烈的	-14221
看到过	-14222
很多东西	-14223
案发现场	-14224
森林里的	-14225
不知道怎么	-14226
有什么办法	-14227
上千	-14228
上都	-14229
争执	-14230
区长	-14231
壮的	-14232
恩爱	-14233
晶莹	-14234
浑蛋	-14235
知名	-14236
矮人	-14237
行不	-14238
还把	-14239
金的	-14240
▁此外	-14241
一起走	-14242
你们去	-14243
你过来	-14244
变得更	-14245
在门口	-14246
有趣的	-14247
的一段	-14248
皇帝的	-14249
▁只要能	-14250
▁啊这个	-14251
一般都是	-14252
▁你在这儿	-14253
什么都不知道	-14254
乃至	-14255
从你	-14256
入选	-14257
化解	-14258
口号	-14259
吃醋	-14260
女娲	-14261
常规	-14262
开业	-14263
气象	-14264
熟人	-14265
讨好	-14266
讽刺	-14267
这笔	-14268
阻击	-14269
▁你该	-14270
▁说到	-14271
以为你	-14272
啊其实	-14273
工作者	-14274
没事的	-14275
身体的	-14276
2020	-14277
▁哎你说	-14278
▁实在是	-14279
希望他们	-14280
说什么了	-14281
给你打电话	-14282
▁县	-14283
▁取	-14284
▁望	-14285
买到	-14286
出大	-14287
反倒	-14288
学期	-14289
弹琴	-14290
德的	-14291
找回	-14292
承载	-14293
推行	-14294
杯水	-14295
还被	-14296
长长	-14297
▁是想	-14298
到了吗	-14299
并不能	-14300
是假的	-14301
而且是	-14302
让咱们	-14303
▁不过这	-14304
再说一遍	-14305
▁我为什么要	-14306
一命	-14307
一查	-14308
会会	-14309
但它	-14310
像他	-14311
全军	-14312
功力	-14313
卖给	-14314
家有	-14315
战绩	-14316
探险	-14317
暗杀	-14318
煤矿	-14319
紫色	-14320
约为	-14321
纯净	-14322
路人	-14323
小孩儿	-14324
没有被	-14325
的项目	-14326
聊一聊	-14327
还是你	-14328
▁你怎么会	-14329
卫国	-14330
历经	-14331
去给	-14332
和老	-14333
将在	-14334
所见	-14335
暴雨	-14336
用钱	-14337
盛世	-14338
省城	-14339
耿耿	-14340
豌豆	-14341
银河	-14342
雪山	-14343
▁你拿	-14344
▁行那	-14345
支付宝	-14346
满意的	-14347
遭到了	-14348
▁你不想	-14349
▁并不是	-14350
▁那当然	-14351
但是现在	-14352
▁情	-14353
一帮	-14354
去送	-14355
在身	-14356
子都	-14357
就怕	-14358
当代	-14359
捧着	-14360
插手	-14361
敢于	-14362
无线	-14363
时而	-14364
滑动	-14365
眼儿	-14366
解救	-14367
闪烁	-14368
▁哎哎	-14369
▁建立	-14370
去美国	-14371
我也很	-14372
每次都	-14373
我的女儿	-14374
永远不会	-14375
等等等等	-14376
记不记得	-14377
▁他们两个	-14378
催眠	-14379
忙啊	-14380
慎重	-14381
把柄	-14382
提倡	-14383
方圆	-14384
转型	-14385
那段	-14386
▁不得	-14387
▁中间	-14388
▁卑职	-14389
个办法	-14390
对中国	-14391
我刚刚	-14392
▁我们再	-14393
▁还记得	-14394
重力势能	-14395
▁你不是说	-14396
▁我觉得我	-14397
▁偷	-14398
分辨	-14399
天大	-14400
扫帚	-14401
料理	-14402
春明	-14403
死刑	-14404
湿润	-14405
照相	-14406
眉毛	-14407
▁师兄	-14408
▁您要	-14409
▁细胞	-14410
▁话说	-14411
▁还会	-14412
七十二	-14413
不都是	-14414
也开始	-14415
国内的	-14416
干嘛呢	-14417
由我来	-14418
西红柿	-14419
阳光下	-14420
▁可是她	-14421
▁那也是	-14422
ng	-14423
也罢	-14424
保健	-14425
凌云	-14426
只管	-14427
回屋	-14428
地板	-14429
审理	-14430
延宗	-14431
想得	-14432
战区	-14433
无耻	-14434
贪婪	-14435
跑的	-14436
难处	-14437
魔王	-14438
黑夜	-14439
▁科学	-14440
之后我	-14441
哪来的	-14442
嘛就是	-14443
我只能	-14444
爷们儿	-14445
的核心	-14446
▁弟兄们	-14447
大吃一惊	-14448
▁蚕	-14449
▁边	-14450
一粒	-14451
三桂	-14452
作了	-14453
十里	-14454
地带	-14455
就这	-14456
扩散	-14457
摧毁	-14458
操场	-14459
武士	-14460
沮丧	-14461
红酒	-14462
缓慢	-14463
就会被	-14464
往心里	-14465
很难受	-14466
有点太	-14467
比较少	-14468
法律的	-14469
▁你刚刚	-14470
已经不是	-14471
kg	-14472
东坡	-14473
咋的	-14474
扩张	-14475
援助	-14476
洗个	-14477
海豚	-14478
百度	-14479
讲解	-14480
颤抖	-14481
▁动物	-14482
▁您别	-14483
▁未来	-14484
但是在	-14485
就是呃	-14486
快点儿	-14487
我都没	-14488
给我吧	-14489
老板娘	-14490
选择的	-14491
那句话	-14492
▁我去找	-14493
在你身边	-14494
在这儿了	-14495
所有人的	-14496
来了一个	-14497
每天都在	-14498
生活当中	-14499
特色社会主义	-14500
▁穆	-14501
人有	-14502
全靠	-14503
却在	-14504
去跟	-14505
友情	-14506
古怪	-14507
可心	-14508
圣旨	-14509
对称	-14510
导航	-14511
小数	-14512
放置	-14513
游记	-14514
耽搁	-14515
觉悟	-14516
▁四十	-14517
▁我俩	-14518
不安全	-14519
五个人	-14520
是个大	-14521
认识他	-14522
还这么	-14523
▁什么事	-14524
一个地方	-14525
说法正确	-14526
▁我真的是	-14527
我想问一下	-14528
▁梦	-14529
▁贺	-14530
前行	-14531
您呢	-14532
抓人	-14533
相差	-14534
要和	-14535
诅咒	-14536
选出	-14537
集市	-14538
黑龙	-14539
▁乌龟	-14540
也一样	-14541
发出了	-14542
喝咖啡	-14543
大利亚	-14544
快乐地	-14545
手机的	-14546
▁因为她	-14547
▁是这样	-14548
怎么说呢	-14549
七天	-14550
中美	-14551
他从	-14552
保中	-14553
充足	-14554
只听	-14555
大将	-14556
牛顿	-14557
背影	-14558
赶往	-14559
跪下	-14560
送回	-14561
选拔	-14562
都跟	-14563
骨折	-14564
一直到	-14565
中含有	-14566
塑料袋	-14567
带到了	-14568
成长的	-14569
的女孩	-14570
的活动	-14571
的部队	-14572
那孩子	-14573
▁我爸爸	-14574
对不起啊	-14575
自己的身体	-14576
▁贵	-14577
一再	-14578
不叫	-14579
侧面	-14580
关上	-14581
合影	-14582
喷喷	-14583
团体	-14584
坑里	-14585
小木	-14586
总共	-14587
战线	-14588
扛着	-14589
抓着	-14590
投奔	-14591
玉帝	-14592
生啊	-14593
电解	-14594
的字	-14595
胸口	-14596
苦心	-14597
防护	-14598
隐患	-14599
但是她	-14600
到外面	-14601
吃饭呢	-14602
我有点	-14603
球队的	-14604
的叫声	-14605
红红的	-14606
1000	-14607
▁我肯定	-14608
▁而且他	-14609
心甘情愿	-14610
▁下列有关	-14611
▁土	-14612
▁陪	-14613
专案	-14614
区分	-14615
含着	-14616
宽容	-14617
愁眉	-14618
我为	-14619
点声	-14620
的原	-14621
辣的	-14622
逃离	-14623
铁匠	-14624
雕刻	-14625
伴随着	-14626
你这话	-14627
半小时	-14628
原子核	-14629
的影子	-14630
的理由	-14631
简直太	-14632
▁我可能	-14633
澳大利亚	-14634
的话我就	-14635
这么说的	-14636
▁演	-14637
去趟	-14638
喊声	-14639
夫君	-14640
它能	-14641
权益	-14642
添加	-14643
点事	-14644
牧羊	-14645
瓜子	-14646
生下	-14647
盛的	-14648
都来	-14649
▁就你	-14650
半会儿	-14651
工作上	-14652
朋友啊	-14653
葡萄糖	-14654
的老百姓	-14655
这个位置	-14656
▁鸭	-14657
不值	-14658
不忍	-14659
五岁	-14660
军校	-14661
冷的	-14662
几步	-14663
千骨	-14664
吵了	-14665
大明	-14666
恒星	-14667
我被	-14668
是给	-14669
的和	-14670
营的	-14671
谈论	-14672
雨伞	-14673
▁愿意	-14674
▁谁能	-14675
了解了	-14676
成立了	-14677
我看你	-14678
的一只	-14679
眼前的	-14680
▁也算是	-14681
也是这样	-14682
就是没有	-14683
到什么时候	-14684
世代	-14685
中队	-14686
以便	-14687
公孙	-14688
找啊	-14689
知府	-14690
签名	-14691
美容	-14692
道士	-14693
随之	-14694
隐约	-14695
上下下	-14696
每一位	-14697
算了吧	-14698
给你看	-14699
脸上的	-14700
道个歉	-14701
line	-14702
我觉得你	-14703
大家都知道	-14704
伯母	-14705
俄国	-14706
刘大	-14707
千玺	-14708
吉利	-14709
呢有	-14710
妨碍	-14711
悲哀	-14712
条子	-14713
正方	-14714
没睡	-14715
灰尘	-14716
片刻	-14717
膝盖	-14718
锁定	-14719
飞舞	-14720
啊不过	-14721
在咱们	-14722
大师兄	-14723
想不想	-14724
洗干净	-14725
绝对是	-14726
被我们	-14727
起案件	-14728
这个老	-14729
进来吧	-14730
▁前几天	-14731
以为自己	-14732
求求你了	-14733
这么多钱	-14734
之日	-14735
刚到	-14736
同伙	-14737
和陈	-14738
开水	-14739
很很	-14740
沉浸	-14741
灾害	-14742
直说	-14743
而非	-14744
自古	-14745
致敬	-14746
药啊	-14747
药的	-14748
这类	-14749
铃铛	-14750
▁从今	-14751
▁他他	-14752
▁莫非	-14753
一只大	-14754
之后啊	-14755
志愿者	-14756
死去的	-14757
能理解	-14758
角落里	-14759
都不好	-14760
▁在中国	-14761
▁小朋友	-14762
收拾东西	-14763
人民共和国	-14764
下定	-14765
下边	-14766
不妥	-14767
去你	-14768
固执	-14769
应为	-14770
抓获	-14771
文杰	-14772
斯诺	-14773
无名	-14774
是呀	-14775
标签	-14776
死心	-14777
流着	-14778
莉莉	-14779
西西	-14780
请到	-14781
课文	-14782
阿爸	-14783
饭馆	-14784
▁一场	-14785
▁小黄	-14786
得特别	-14787
还有事	-14788
那么高	-14789
▁这也太	-14790
也没办法	-14791
这两个人	-14792
非常大的	-14793
▁我也不会	-14794
下达	-14795
内涵	-14796
初恋	-14797
喉咙	-14798
声波	-14799
小妹	-14800
年头	-14801
美妙	-14802
能与	-14803
营造	-14804
出色的	-14805
天大的	-14806
教室里	-14807
是咱们	-14808
比赛了	-14809
都不想	-14810
▁我终于	-14811
一百二十	-14812
资产阶级	-14813
▁你们几个	-14814
一齐	-14815
压抑	-14816
叶绿	-14817
同桌	-14818
圆周	-14819
多有	-14820
大片	-14821
枪声	-14822
查明	-14823
澄清	-14824
玩啊	-14825
白银	-14826
降落	-14827
风力	-14828
▁早晚	-14829
▁眼睛	-14830
▁非要	-14831
反过来	-14832
它不是	-14833
接到了	-14834
狄仁杰	-14835
的形成	-14836
老师说	-14837
自己做	-14838
观察到	-14839
▁真正的	-14840
▁或	-14841
▁赤	-14842
一博	-14843
不顺	-14844
两颗	-14845
使其	-14846
其余	-14847
天宫	-14848
打人	-14849
此地	-14850
治国	-14851
的李	-14852
突变	-14853
股权	-14854
▁发生	-14855
▁我被	-14856
▁都说	-14857
不要紧	-14858
什么大	-14859
又大又	-14860
咱们再	-14861
是是是	-14862
爸爸说	-14863
自己了	-14864
身上有	-14865
▁我怀疑	-14866
▁我还得	-14867
▁这些人	-14868
不太一样	-14869
哈哈哈哈	-14870
放大倍数	-14871
没有时间	-14872
▁因为他们	-14873
▁乐	-14874
不便	-14875
两下	-14876
你拿	-14877
全城	-14878
吧那	-14879
呀就	-14880
壮观	-14881
底的	-14882
废了	-14883
排骨	-14884
柳树	-14885
白发	-14886
细心	-14887
讲过	-14888
赌场	-14889
跟在	-14890
面孔	-14891
乎乎的	-14892
他们去	-14893
四边形	-14894
太平洋	-14895
家的人	-14896
年前的	-14897
能够在	-14898
这里有	-14899
▁刚开始	-14900
传说中的	-14901
▁我们必须	-14902
中超	-14903
克的	-14904
吃鸡	-14905
嘀咕	-14906
坐车	-14907
带电	-14908
弱点	-14909
彩色	-14910
文清	-14911
湖泊	-14912
狂风	-14913
科举	-14914
花粉	-14915
食用	-14916
香水	-14917
▁全都	-14918
▁我带	-14919
▁而在	-14920
很好啊	-14921
把那些	-14922
救命啊	-14923
是人类	-14924
▁那怎么	-14925
▁咱们现在	-14926
▁笑	-14927
三夜	-14928
些年	-14929
京剧	-14930
但她	-14931
债务	-14932
军区	-14933
响声	-14934
打量	-14935
拳击	-14936
提亲	-14937
星空	-14938
来就	-14939
来这	-14940
熟的	-14941
电线	-14942
▁妈您	-14943
▁松鼠	-14944
▁站长	-14945
一九八	-14946
兄弟俩	-14947
全国的	-14948
化妆品	-14949
回来吗	-14950
存在着	-14951
我必须	-14952
用一个	-14953
的形状	-14954
看我的	-14955
见到他	-14956
▁他们会	-14957
▁可现在	-14958
如果我们	-14959
需要一个	-14960
▁空	-14961
二代	-14962
他爸	-14963
份上	-14964
便会	-14965
决战	-14966
叨叨	-14967
吧就	-14968
在场	-14969
天文	-14970
心跳	-14971
感的	-14972
提问	-14973
滚蛋	-14974
爹的	-14975
疏忽	-14976
自家	-14977
萌发	-14978
▁为此	-14979
宝贝们	-14980
挡住了	-14981
节目组	-14982
▁你们先	-14983
▁我明白	-14984
▁我父亲	-14985
他自己的	-14986
对对对对	-14987
rline	-14988
▁守	-14989
▁燕	-14990
▁皮	-14991
▁盛	-14992
伪军	-14993
光彩	-14994
军阀	-14995
卫视	-14996
却又	-14997
合唱	-14998
好点	-14999
征求	-15000
文帝	-15001
歇着	-15002
死他	-15003
求见	-15004
济南	-15005
瞎了	-15006
红红	-15007
蛋蛋	-15008
账本	-15009
转折	-15010
饿得	-15011
▁领导	-15012
叫过来	-15013
啊所以	-15014
大概是	-15015
的思想	-15016
神经病	-15017
自然会	-15018
要是能	-15019
▁并没有	-15020
▁难道你	-15021
不知道你	-15022
什么也没	-15023
到底是怎么	-15024
了再	-15025
可恶	-15026
多说	-15027
奖了	-15028
威尔	-15029
思乱	-15030
我问	-15031
揭晓	-15032
教材	-15033
气儿	-15034
统领	-15035
500	-15036
他可以	-15037
多一点	-15038
姜子牙	-15039
就是从	-15040
战斗力	-15041
是一对	-15042
欺负我	-15043
的帮助	-15044
管不了	-15045
▁我跟她	-15046
你在哪儿	-15047
走走走走	-15048
都是这样	-15049
▁我希望你	-15050
▁冷	-15051
▁身	-15052
会计	-15053
体检	-15054
刻苦	-15055
厂子	-15056
岸上	-15057
干过	-15058
打车	-15059
挡住	-15060
旧的	-15061
渔民	-15062
社长	-15063
▁尽快	-15064
▁山羊	-15065
▁差点	-15066
三十六	-15067
个什么	-15068
啊他们	-15069
送过来	-15070
▁我有点	-15071
▁我还能	-15072
身体健康	-15073
先走了再见	-15074
▁睡	-15075
不提	-15076
偷懒	-15077
去当	-15078
失恋	-15079
好喝	-15080
无非	-15081
朵花	-15082
花香	-15083
苦难	-15084
跟头	-15085
呢我就	-15086
国家队	-15087
大大小	-15088
市场的	-15089
的动物	-15090
跟我提	-15091
跟着他	-15092
陌生的	-15093
非常大	-15094
▁你还真	-15095
▁因为它	-15096
完了以后	-15097
一度	-15098
不被	-15099
严密	-15100
之命	-15101
分工	-15102
卑鄙	-15103
太久	-15104
拖鞋	-15105
文书	-15106
斯卡	-15107
晶晶	-15108
活该	-15109
繁华	-15110
▁她会	-15111
▁经济	-15112
一晚上	-15113
副院长	-15114
打起来	-15115
朱元璋	-15116
经常会	-15117
质量的	-15118
▁你愿意	-15119
▁有很多	-15120
不一样啊	-15121
但是这个	-15122
你为什么要	-15123
准备好了吗	-15124
上回	-15125
侵犯	-15126
太高	-15127
就拿	-15128
往事	-15129
我该	-15130
撤了	-15131
无路	-15132
板桥	-15133
树立	-15134
泰国	-15135
液态	-15136
父女	-15137
班级	-15138
瞎说	-15139
解读	-15140
较量	-15141
过错	-15142
逼着	-15143
那叫	-15144
都督	-15145
风云	-15146
▁打开	-15147
做你的	-15148
双胞胎	-15149
平安安	-15150
认识到	-15151
那么快	-15152
▁他自己	-15153
▁确实是	-15154
住的地方	-15155
其实我觉得	-15156
▁伊	-15157
▁必	-15158
做菜	-15159
加大	-15160
占有	-15161
去追	-15162
古人	-15163
吞吞	-15164
呀他	-15165
喔喔	-15166
开辟	-15167
影像	-15168
息怒	-15169
执政	-15170
祖父	-15171
结尾	-15172
翩翩	-15173
走后	-15174
马云	-15175
黑风	-15176
▁太君	-15177
▁爱情	-15178
一九三	-15179
咱们这	-15180
孩子啊	-15181
忘不了	-15182
有能力	-15183
村里的	-15184
的梦想	-15185
真实身份	-15186
凶猛	-15187
小梅	-15188
并无	-15189
所欲	-15190
搅拌	-15191
是何	-15192
走动	-15193
过滤	-15194
遗嘱	-15195
酒馆	-15196
露珠	-15197
告辞了	-15198
的同志	-15199
的爱情	-15200
的那一	-15201
说起来	-15202
那个叫	-15203
这种事儿	-15204
都不愿意	-15205
▁团	-15206
与众	-15207
各大	-15208
歼灭	-15209
汉语	-15210
热烈	-15211
门儿	-15212
首席	-15213
▁做了	-15214
▁她要	-15215
▁老头	-15216
呃这个	-15217
呢因为	-15218
太大的	-15219
我父亲	-15220
毛毛虫	-15221
的兄弟	-15222
的训练	-15223
第一步	-15224
他们已经	-15225
有什么话	-15226
比如说我	-15227
▁你怎么不	-15228
一问	-15229
专辑	-15230
公事	-15231
再把	-15232
小屋	-15233
急于	-15234
敌后	-15235
新型	-15236
机遇	-15237
每当	-15238
民生	-15239
照应	-15240
的信	-15241
致命	-15242
英超	-15243
语境	-15244
轮的	-15245
违约	-15246
都听	-15247
随手	-15248
魏国	-15249
▁姐夫	-15250
▁是是	-15251
了我也	-15252
呢现在	-15253
害怕了	-15254
这一套	-15255
高大的	-15256
▁其实你	-15257
▁说什么	-15258
我知道你	-15259
▁我一会儿	-15260
▁背	-15261
五点	-15262
他被	-15263
分寸	-15264
刚一	-15265
即刻	-15266
原先	-15267
小强	-15268
就都	-15269
已有	-15270
才叫	-15271
打断	-15272
朝天	-15273
林丹	-15274
混混	-15275
神器	-15276
跟那	-15277
酱油	-15278
鼓舞	-15279
▁父母	-15280
▁选择	-15281
一阵子	-15282
不靠谱	-15283
吃顿饭	-15284
就是这	-15285
就给我	-15286
我是你	-15287
欢迎你	-15288
等待着	-15289
为自己的	-15290
人民群众	-15291
知道我们	-15292
▁站	-15293
刻意	-15294
外甥	-15295
您在	-15296
猎狗	-15297
而过	-15298
营销	-15299
酸的	-15300
▁一共	-15301
▁影响	-15302
了一番	-15303
你真是	-15304
在座的	-15305
我看过	-15306
▁老爷爷	-15307
一个朋友	-15308
是什么呀	-15309
那么多年	-15310
42	-15311
▁温	-15312
写完	-15313
出点	-15314
反动	-15315
古典	-15316
向外	-15317
国君	-15318
女傅	-15319
快到	-15320
怪罪	-15321
所做	-15322
批判	-15323
拿过	-15324
文静	-15325
良好	-15326
输入	-15327
那可	-15328
除去	-15329
▁那人	-15330
准确性	-15331
参加过	-15332
电话里	-15333
的小鸟	-15334
确实有	-15335
胡思乱	-15336
▁你们这	-15337
这儿来了	-15338
送给我的	-15339
一封	-15340
之大	-15341
全程	-15342
地就	-15343
太师	-15344
房门	-15345
拉的	-15346
某人	-15347
狼的	-15348
玄宗	-15349
陆军	-15350
▁你若	-15351
▁免得	-15352
三公子	-15353
她已经	-15354
小花猫	-15355
快起来	-15356
我们呢	-15357
我好像	-15358
我让你	-15359
挺大的	-15360
日军的	-15361
有多么	-15362
男主角	-15363
让这个	-15364
试试看	-15365
请来了	-15366
这说明	-15367
那么小	-15368
▁你也别	-15369
变得更加	-15370
咱们现在	-15371
希望大家	-15372
▁我怎么会	-15373
是不是应该	-15374
▁侯	-15375
▁变	-15376
几分	-15377
励志	-15378
匹配	-15379
吃呢	-15380
吸取	-15381
呵护	-15382
小曼	-15383
布朗	-15384
开头	-15385
想买	-15386
推开	-15387
时节	-15388
用到	-15389
由我	-15390
的像	-15391
紧了	-15392
约束	-15393
老牛	-15394
落入	-15395
质点	-15396
边走	-15397
一百万	-15398
你看过	-15399
吃这个	-15400
好事儿	-15401
心里想	-15402
打不过	-15403
的一半	-15404
箱子里	-15405
赵传奇	-15406
▁都已经	-15407
生态环境	-15408
还是有点	-15409
就是我们的	-15410
▁格	-15411
两张	-15412
假话	-15413
内疚	-15414
出过	-15415
卡片	-15416
大批	-15417
心急	-15418
扫荡	-15419
缺陷	-15420
认了	-15421
除以	-15422
▁与其	-15423
▁属于	-15424
▁那咱	-15425
了一切	-15426
多吃点	-15427
比不上	-15428
的表情	-15429
跟我的	-15430
这是要	-15431
▁不过他	-15432
关键时刻	-15433
▁你是怎么	-15434
▁桑	-15435
▁油	-15436
▁超	-15437
义勇	-15438
五日	-15439
位子	-15440
低于	-15441
内地	-15442
出宫	-15443
十足	-15444
商务	-15445
四点	-15446
是把	-15447
深受	-15448
细腻	-15449
老四	-15450
误解	-15451
金花	-15452
▁我姐	-15453
了一会	-15454
同时也	-15455
对你说	-15456
抬起头	-15457
然后你	-15458
▁我也要	-15459
一个星期	-15460
现在这样	-15461
看出来了	-15462
▁报	-15463
义的	-15464
书院	-15465
来你	-15466
给钱	-15467
责怪	-15468
费劲	-15469
元素的	-15470
在旁边	-15471
慢走啊	-15472
点吃的	-15473
▁他可是	-15474
了一个大	-15475
回答正确	-15476
▁作为一个	-15477
▁有什么事	-15478
▁伤	-15479
▁跳	-15480
中人	-15481
乐园	-15482
军委	-15483
又一	-15484
吗这	-15485
员的	-15486
回吧	-15487
妥协	-15488
庄园	-15489
所得	-15490
板凳	-15491
维修	-15492
赏赐	-15493
趁热	-15494
骗人	-15495
▁中共	-15496
▁来自	-15497
▁那得	-15498
▁青青	-15499
不错呀	-15500
兔妈妈	-15501
喝点水	-15502
房地产	-15503
的一员	-15504
自然的	-15505
是我自己	-15506
的话我们	-15507
▁这个问题	-15508
你知不知道	-15509
丑陋	-15510
家去	-15511
小三	-15512
抢走	-15513
拿大	-15514
稀奇	-15515
话来	-15516
较为	-15517
不让你	-15518
也已经	-15519
地下室	-15520
觉得她	-15521
赶紧把	-15522
那里的	-15523
集团的	-15524
▁一个月	-15525
▁老百姓	-15526
我的儿子	-15527
了一段时间	-15528
PP	-15529
▁封	-15530
▁景	-15531
再三	-15532
吧他	-15533
呢要	-15534
宁静	-15535
法医	-15536
番茄	-15537
百花	-15538
第九	-15539
粗糙	-15540
练练	-15541
缝隙	-15542
考生	-15543
血脉	-15544
轮椅	-15545
预言	-15546
▁再见	-15547
▁小红	-15548
▁要说	-15549
做错了	-15550
合作的	-15551
城里的	-15552
我明白	-15553
摄影师	-15554
的价格	-15555
的前提	-15556
的心态	-15557
的文化	-15558
说你要	-15559
都不行	-15560
陷入了	-15561
▁如果有	-15562
▁你也在看	-15563
▁我一个人	-15564
BC	-15565
▁药	-15566
农历	-15567
哭啊	-15568
坡度	-15569
惊恐	-15570
方位	-15571
现状	-15572
确凿	-15573
诊断	-15574
跨越	-15575
里外	-15576
长成	-15577
顽强	-15578
▁他没	-15579
▁父王	-15580
了上去	-15581
了那个	-15582
兴奋地	-15583
写的是	-15584
别忘了	-15585
当我们	-15586
王子的	-15587
环境中	-15588
的一份	-15589
破坏了	-15590
类似的	-15591
▁你这一	-15592
▁我们这	-15593
想干什么	-15594
倒数	-15595
去掉	-15596
在最	-15597
异的	-15598
栽培	-15599
此案	-15600
祝你	-15601
见人	-15602
较低	-15603
长达	-15604
▁不太	-15605
▁放在	-15606
一下我	-15607
两分钟	-15608
变化的	-15609
想看看	-15610
相信他	-15611
看不上	-15612
过去吧	-15613
▁我也会	-15614
▁那好吧	-15615
不容易的	-15616
也越来越	-15617
测量结果	-15618
二零一五年	-15619
不比	-15620
书豪	-15621
交待	-15622
兴致	-15623
后腿	-15624
安抚	-15625
将她	-15626
就对	-15627
干得	-15628
幸好	-15629
引进	-15630
苦衷	-15631
补习	-15632
过大	-15633
运转	-15634
龙宫	-15635
二十九	-15636
去找你	-15637
可是他	-15638
总决赛	-15639
期节目	-15640
照顾她	-15641
爱上了	-15642
看他们	-15643
▁我准备	-15644
▁自己的	-15645
只是为了	-15646
大家都是	-15647
组成部分	-15648
▁官	-15649
▁广	-15650
中秋	-15651
之子	-15652
事发	-15653
出钱	-15654
单子	-15655
和高	-15656
哎哟	-15657
大呀	-15658
密室	-15659
山了	-15660
探望	-15661
本官	-15662
沥川	-15663
罪行	-15664
骨骼	-15665
鲁迅	-15666
▁他从	-15667
▁会有	-15668
▁你一	-15669
出来啊	-15670
更喜欢	-15671
来说是	-15672
没怎么	-15673
的人家	-15674
队员们	-15675
▁我回去	-15676
密切相关	-15677
就在这儿	-15678
▁因为这个	-15679
31	-15680
坐牢	-15681
小玉	-15682
得先	-15683
昆明	-15684
有毒	-15685
来人	-15686
林中	-15687
氨基	-15688
江城	-15689
清香	-15690
王位	-15691
白马	-15692
羞辱	-15693
于是他	-15694
你想想	-15695
受害人	-15696
好玩的	-15697
文明的	-15698
的表演	-15699
ma	-15700
也来	-15701
再加	-15702
动身	-15703
困惑	-15704
工钱	-15705
我等	-15706
打小	-15707
有成	-15708
来是	-15709
武艺	-15710
边说	-15711
▁他跟	-15712
▁南京	-15713
一共有	-15714
如果他	-15715
实话实	-15716
强大脑	-15717
我女儿	-15718
点时间	-15719
表达了	-15720
那也是	-15721
▁我想要	-15722
没有找到	-15723
▁现在已经	-15724
都有自己的	-15725
▁舒	-15726
一级	-15727
写在	-15728
唤醒	-15729
壁画	-15730
对岸	-15731
很棒	-15732
执意	-15733
日期	-15734
立方	-15735
竞技	-15736
绿灯	-15737
肿瘤	-15738
西斯	-15739
达尔	-15740
送她	-15741
▁这家	-15742
另一边	-15743
各地的	-15744
就像是	-15745
志愿军	-15746
有信心	-15747
来进行	-15748
梅花鹿	-15749
看没看	-15750
纪录片	-15751
表现的	-15752
▁把他们	-15753
▁既然是	-15754
回来了吗	-15755
▁只要我们	-15756
因为我觉得	-15757
世人	-15758
之以	-15759
关头	-15760
周到	-15761
团圆	-15762
得逞	-15763
所未	-15764
掩饰	-15765
消毒	-15766
糟蹋	-15767
缘故	-15768
花瓶	-15769
花盆	-15770
饮酒	-15771
高处	-15772
▁东北	-15773
▁共军	-15774
▁等着	-15775
▁这段	-15776
也会有	-15777
到一起	-15778
加入了	-15779
我们走	-15780
我倒是	-15781
最起码	-15782
有消息	-15783
科学的	-15784
感受到了	-15785
的小伙子	-15786
75	-15787
▁菜	-15788
不负	-15789
凝聚	-15790
可他	-15791
对您	-15792
抱抱	-15793
是会	-15794
景观	-15795
查了	-15796
淇淋	-15797
相继	-15798
迪欧	-15799
▁以为	-15800
▁去了	-15801
▁感情	-15802
▁明日	-15803
你什么	-15804
惊呆了	-15805
想象力	-15806
生长的	-15807
经过了	-15808
给我打	-15809
▁什么是	-15810
▁如果您	-15811
▁小姑娘	-15812
▁就因为	-15813
在我心里	-15814
跟我说的	-15815
▁我们不是	-15816
▁羊	-15817
力学	-15818
发火	-15819
叹气	-15820
好呀	-15821
小满	-15822
情有	-15823
惊吓	-15824
想在	-15825
某一	-15826
樱花	-15827
细致	-15828
艰辛	-15829
言语	-15830
起飞	-15831
还未	-15832
遥控	-15833
金光	-15834
长为	-15835
▁完成	-15836
▁说吧	-15837
三十岁	-15838
不上了	-15839
了不过	-15840
希望我	-15841
电视上	-15842
看见他	-15843
通过了	-15844
了这么多	-15845
明白了吗	-15846
每天晚上	-15847
篮球比赛	-15848
身体不好	-15849
那么简单	-15850
▁你一个人	-15851
▁名	-15852
▁次	-15853
▁母	-15854
一门	-15855
七日	-15856
剩余	-15857
呢还	-15858
坚信	-15859
多加	-15860
太爷	-15861
子建	-15862
它又	-15863
层楼	-15864
层面	-15865
无私	-15866
是啥	-15867
查理	-15868
湖水	-15869
灭火	-15870
苦恼	-15871
观赏	-15872
追击	-15873
餐馆	-15874
▁主席	-15875
▁他和	-15876
▁再次	-15877
他们还	-15878
太阳能	-15879
故排除	-15880
有关的	-15881
有机物	-15882
用我的	-15883
的动作	-15884
▁你一定	-15885
▁你妈妈	-15886
▁我是个	-15887
不知道他	-15888
了不起的	-15889
可能导致	-15890
▁谢谢谢谢	-15891
优化	-15892
修行	-15893
庆幸	-15894
弥漫	-15895
星的	-15896
林的	-15897
比起	-15898
球技	-15899
真爱	-15900
近期	-15901
追着	-15902
道菜	-15903
▁证明	-15904
▁详解	-15905
下去的	-15906
天晚上	-15907
所在的	-15908
种子的	-15909
而且他	-15910
都比较	-15911
▁只是我	-15912
▁您要是	-15913
不一会儿	-15914
你也知道	-15915
都没有啊	-15916
▁你不觉得	-15917
▁亏	-15918
▁凯	-15919
▁托	-15920
不问	-15921
加倍	-15922
千古	-15923
去哪	-15924
姓名	-15925
客官	-15926
富翁	-15927
强啊	-15928
惊动	-15929
无知	-15930
条腿	-15931
物证	-15932
犯的	-15933
用处	-15934
真情	-15935
能帮	-15936
舞会	-15937
街坊	-15938
轻重	-15939
这般	-15940
▁你到	-15941
▁姑姑	-15942
下车了	-15943
北京的	-15944
就是那	-15945
就比较	-15946
感动了	-15947
沙发上	-15948
的一家	-15949
赛场上	-15950
放在眼里	-15951
▁但是他们	-15952
余地	-15953
保镖	-15954
全场	-15955
声响	-15956
外头	-15957
就业	-15958
开朗	-15959
感触	-15960
报信	-15961
无恙	-15962
最少	-15963
比一	-15964
没少	-15965
注视	-15966
津津	-15967
深了	-15968
犯法	-15969
相传	-15970
莺莺	-15971
路啊	-15972
过她	-15973
▁国际	-15974
▁我早	-15975
▁这对	-15976
上了一	-15977
做了一	-15978
我们又	-15979
的目光	-15980
看不懂	-15981
走进了	-15982
▁世界上	-15983
我们的人	-15984
有很多人	-15985
的事情啊	-15986
▁不过现在	-15987
▁我第一次	-15988
▁乌	-15989
三只	-15990
不难	-15991
儿你	-15992
后台	-15993
失落	-15994
头部	-15995
姨娘	-15996
心虚	-15997
总您	-15998
抄袭	-15999
满洲	-16000
的鱼	-16001
目睹	-16002
省力	-16003
红旗	-16004
走呢	-16005
转到	-16006
适当	-16007
香啊	-16008
鬼鬼	-16009
▁不对	-16010
▁何况	-16011
之后他	-16012
了我先	-16013
没看到	-16014
领导人	-16015
不是你的	-16016
快点快点	-16017
这样一种	-16018
万事	-16019
两眼	-16020
丽丝	-16021
刘子	-16022
塞尔	-16023
安然	-16024
寺庙	-16025
恶意	-16026
拉倒	-16027
灭绝	-16028
神圣	-16029
编号	-16030
顺手	-16031
▁历史	-16032
▁大嫂	-16033
▁我娘	-16034
企业的	-16035
只能是	-16036
听不见	-16037
回来就	-16038
我们班	-16039
我其实	-16040
看他的	-16041
看看啊	-16042
穿衣服	-16043
这一段	-16044
配不上	-16045
高科技	-16046
太危险了	-16047
生活中的	-16048
这个就是	-16049
▁是这样的	-16050
▁翻	-16051
一律	-16052
临死	-16053
勤奋	-16054
去想	-16055
后勤	-16056
和气	-16057
它了	-16058
强制	-16059
旅程	-16060
桥梁	-16061
活在	-16062
田地	-16063
美龄	-16064
走访	-16065
饭的	-16066
▁啊这	-16067
也只有	-16068
十几个	-16069
又一个	-16070
我真是	-16071
水蒸气	-16072
看着他	-16073
▁你可是	-16074
▁这么说	-16075
妈妈妈妈	-16076
下人	-16077
不回	-16078
为重	-16079
伦敦	-16080
兰特	-16081
实数	-16082
密集	-16083
快慢	-16084
我军	-16085
楼外	-16086
步枪	-16087
火药	-16088
美啊	-16089
肖战	-16090
荒唐	-16091
过啊	-16092
避开	-16093
量子	-16094
▁不怕	-16095
▁变成	-16096
不要太	-16097
以前是	-16098
可怕了	-16099
吃起来	-16100
才是最	-16101
的作品	-16102
研究生	-16103
送给我	-16104
选一个	-16105
▁我们来	-16106
只不过是	-16107
掌声有请	-16108
还是不错的	-16109
也快	-16110
宠爱	-16111
干杯	-16112
找一	-16113
拐弯	-16114
招惹	-16115
欧冠	-16116
水珠	-16117
洗了	-16118
的树	-16119
肺活	-16120
越想	-16121
选了	-16122
钱财	-16123
高三	-16124
▁您说	-16125
副主任	-16126
在一旁	-16127
大石头	-16128
我什么	-16129
手指头	-16130
笑了笑	-16131
我们这儿	-16132
我还没有	-16133
生日礼物	-16134
▁这部电影	-16135
没什么事儿	-16136
01	-16137
▁代	-16138
你懂	-16139
六千	-16140
写道	-16141
剧场	-16142
卫东	-16143
帅啊	-16144
怕了	-16145
恭敬	-16146
悬疑	-16147
栖息	-16148
演习	-16149
目击	-16150
绿豆	-16151
航海	-16152
薇薇	-16153
螳螂	-16154
诡计	-16155
金洋	-16156
面了	-16157
▁各种	-16158
▁此刻	-16159
▁认识	-16160
她没有	-16161
我那个	-16162
比我还	-16163
生产者	-16164
生气啊	-16165
病人的	-16166
的存在	-16167
进行的	-16168
他是一个	-16169
嫌疑人的	-16170
找个地方	-16171
收拾一下	-16172
没什么事	-16173
的一个人	-16174
说得没错	-16175
情况怎么样	-16176
▁蒙	-16177
上头	-16178
你该	-16179
州市	-16180
总之	-16181
我娘	-16182
收缩	-16183
男神	-16184
看谁	-16185
破译	-16186
装作	-16187
跳着	-16188
这门	-16189
都都	-16190
▁就这	-16191
▁正当	-16192
了我想	-16193
低着头	-16194
你是我	-16195
我走了	-16196
生产的	-16197
▁这会儿	-16198
▁这里边	-16199
三个小时	-16200
告诉我我	-16201
le	-16202
▁灵	-16203
严谨	-16204
之位	-16205
做着	-16206
害的	-16207
干爹	-16208
开阔	-16209
抗议	-16210
无影	-16211
无理	-16212
有种	-16213
杰伦	-16214
梁山	-16215
正直	-16216
沟里	-16217
没得	-16218
粮草	-16219
羞愧	-16220
而行	-16221
航行	-16222
难关	-16223
▁你猜	-16224
▁好啦	-16225
▁起码	-16226
你可能	-16227
内部的	-16228
在天上	-16229
帮个忙	-16230
干啥呢	-16231
很有趣	-16232
有本事	-16233
的支持	-16234
美味的	-16235
老头儿	-16236
今日说法	-16237
我还以为	-16238
现在不是	-16239
突然发现	-16240
休息一会儿	-16241
▁怎	-16242
▁鸟	-16243
一行	-16244
三弟	-16245
你哥	-16246
前边	-16247
喝着	-16248
嚣张	-16249
安顿	-16250
对决	-16251
带给	-16252
快跑	-16253
摇摇	-16254
滋滋	-16255
留意	-16256
补贴	-16257
送他	-16258
▁判断	-16259
▁奇怪	-16260
一年的	-16261
全家人	-16262
务之急	-16263
小乌龟	-16264
没用的	-16265
眼睛里	-16266
这么小	-16267
也有很多	-16268
他们都是	-16269
好不好啊	-16270
比如说你	-16271
百分之百	-16272
自我介绍	-16273
还挺好的	-16274
▁我这辈子	-16275
不倒	-16276
余人	-16277
兰花	-16278
几条	-16279
向西	-16280
周全	-16281
唧唧	-16282
太贵	-16283
小北	-16284
干预	-16285
并肩	-16286
我让	-16287
扫描	-16288
接你	-16289
提拔	-16290
敌军	-16291
生殖	-16292
百人	-16293
相依	-16294
神气	-16295
而成	-16296
该死	-16297
连胜	-16298
▁听了	-16299
▁师座	-16300
▁文化	-16301
▁让人	-16302
只是在	-16303
好起来	-16304
当时就	-16305
选项中	-16306
那这个	-16307
▁你好好	-16308
▁我确实	-16309
可以看出	-16310
生日快乐	-16311
有什么区别	-16312
▁我从来没有	-16313
▁短	-16314
优先	-16315
依依	-16316
吸毒	-16317
器的	-16318
夺取	-16319
手工	-16320
滑梯	-16321
给咱	-16322
足足	-16323
跳进	-16324
身在	-16325
通电	-16326
▁你叫	-16327
▁你当	-16328
▁见到	-16329
地说你	-16330
小分队	-16331
派人去	-16332
癞蛤蟆	-16333
社会上	-16334
能量的	-16335
那什么	-16336
▁他知道	-16337
▁你是个	-16338
▁咱们的	-16339
一动不动	-16340
我不喜欢	-16341
这样子的	-16342
▁怎么回事	-16343
▁尤	-16344
傻柱	-16345
刹车	-16346
大义	-16347
大碍	-16348
快啊	-16349
打折	-16350
搭建	-16351
欣喜	-16352
相连	-16353
稀里	-16354
要从	-16355
资助	-16356
跟鞋	-16357
▁分析	-16358
了进去	-16359
你还要	-16360
哥哥的	-16361
当一个	-16362
微笑着	-16363
成功地	-16364
的还有	-16365
见不得	-16366
跟妈妈	-16367
有可能是	-16368
肚子里的	-16369
蹦蹦跳跳	-16370
▁我在这儿	-16371
▁我们一定要	-16372
创始	-16373
听后	-16374
咬牙	-16375
子在	-16376
年初	-16377
戏的	-16378
有味	-16379
松开	-16380
毛钱	-16381
海报	-16382
烈士	-16383
的菜	-16384
▁不可	-16385
▁我猜	-16386
了咱们	-16387
但是它	-16388
出现过	-16389
医院里	-16390
心眼儿	-16391
抓走了	-16392
西方的	-16393
▁怎么又	-16394
对你来说	-16395
有一句话	-16396
选项错误	-16397
▁约	-16398
下半	-16399
京东	-16400
名片	-16401
和它	-16402
块儿	-16403
堂主	-16404
尽的	-16405
师团	-16406
帮手	-16407
抢着	-16408
极大	-16409
正正	-16410
水性	-16411
活活	-16412
玩呢	-16413
知己	-16414
站的	-16415
编辑	-16416
罐子	-16417
迎来	-16418
钉子	-16419
闪失	-16420
鸳鸯	-16421
▁几个	-16422
他们又	-16423
你的心	-16424
傅红雪	-16425
像以前	-16426
啊你看	-16427
的确是	-16428
真不错	-16429
老师您	-16430
都属于	-16431
陪着我	-16432
1234	-16433
▁你竟然	-16434
解决不了	-16435
都是一个	-16436
mv	-16437
▁党	-16438
▁兵	-16439
丧气	-16440
丽丽	-16441
公馆	-16442
兰的	-16443
关节	-16444
出声	-16445
召唤	-16446
堂的	-16447
家吗	-16448
带队	-16449
座山	-16450
救国	-16451
气泡	-16452
纺织	-16453
▁就跟	-16454
一路上	-16455
下次聊	-16456
可都是	-16457
就好像	-16458
打网球	-16459
有效的	-16460
现在有	-16461
饿死了	-16462
▁咱们家	-16463
▁大少爷	-16464
▁等会儿	-16465
我们学校	-16466
抗日战争	-16467
的时候会	-16468
发生的事情	-16469
什么时候才能	-16470
▁错	-16471
丽莎	-16472
二维	-16473
以赴	-16474
体贴	-16475
只顾	-16476
她把	-16477
我拿	-16478
拉到	-16479
灰兔	-16480
留了	-16481
疼得	-16482
疼爱	-16483
花草	-16484
认得	-16485
谈了	-16486
▁老爸	-16487
促进了	-16488
对她的	-16489
开一个	-16490
条件的	-16491
电磁波	-16492
的形式	-16493
遥远的	-16494
那个老	-16495
▁但是这	-16496
▁你回去	-16497
▁别别别	-16498
▁我从来	-16499
先走了啊	-16500
我就可以	-16501
我的意思	-16502
知识分子	-16503
这个角色	-16504
▁你们怎么	-16505
▁烧	-16506
创建	-16507
又问	-16508
吸烟	-16509
恳求	-16510
教主	-16511
理财	-16512
皮球	-16513
真真	-16514
缝里	-16515
被困	-16516
西汉	-16517
较高	-16518
闪着	-16519
马东	-16520
ATP	-16521
▁男孩	-16522
声音的	-16523
心脏病	-16524
死了我	-16525
的努力	-16526
跟您说	-16527
速度为	-16528
▁你之前	-16529
▁小男孩	-16530
你在这儿	-16531
带着孩子	-16532
虽然没有	-16533
▁那你知道	-16534
▁麻	-16535
不适	-16536
人质	-16537
公转	-16538
同盟	-16539
学森	-16540
是李	-16541
本能	-16542
样品	-16543
案情	-16544
滴水	-16545
瑛娘	-16546
的脚	-16547
真要	-16548
行使	-16549
视角	-16550
语音	-16551
过瘾	-16552
顶天	-16553
▁她还	-16554
▁起来	-16555
▁阳光	-16556
三十二	-16557
了一片	-16558
他们有	-16559
会变成	-16560
出门了	-16561
基础上	-16562
现在又	-16563
要是再	-16564
▁我都会	-16565
走吧走吧	-16566
▁命	-16567
两根	-16568
兮兮	-16569
再过	-16570
吃吗	-16571
和阿	-16572
增添	-16573
失眠	-16574
心来	-16575
成名	-16576
既有	-16577
时就	-16578
未能	-16579
电力	-16580
都市	-16581
▁不论	-16582
▁五十	-16583
▁代表	-16584
▁秋天	-16585
我给您	-16586
气体的	-16587
成什么样	-16588
我们大家	-16589
▁指	-16590
丫鬟	-16591
之罪	-16592
供给	-16593
外部	-16594
多元	-16595
大牢	-16596
属性	-16597
想必	-16598
捕鱼	-16599
擦擦	-16600
月初	-16601
样本	-16602
的酒	-16603
瞅瞅	-16604
磕头	-16605
移植	-16606
窝囊	-16607
管教	-16608
说啥	-16609
都拿	-16610
闹钟	-16611
颁布	-16612
饭碗	-16613
▁十二	-16614
▁我拿	-16615
▁解答	-16616
一百个	-16617
不讲理	-16618
主人公	-16619
也特别	-16620
你以后	-16621
我可能	-16622
检察院	-16623
的性格	-16624
香喷喷	-16625
▁知道了	-16626
▁而且我	-16627
你们怎么	-16628
你这样的	-16629
毫不犹豫	-16630
什么样的人	-16631
三轮	-16632
了在	-16633
做客	-16634
剧烈	-16635
司徒	-16636
告状	-16637
嘛我	-16638
奶油	-16639
存款	-16640
寝室	-16641
帮帮	-16642
德行	-16643
打赢	-16644
棒棒	-16645
爬山	-16646
硬度	-16647
管道	-16648
给出	-16649
而后	-16650
赔礼	-16651
逗逗	-16652
陈家	-16653
▁刚好	-16654
事儿呢	-16655
亲生的	-16656
半天了	-16657
和朋友	-16658
急急忙	-16659
给妈妈	-16660
▁如果她	-16661
▁就应该	-16662
▁行了你	-16663
▁跟你说	-16664
希望你们	-16665
氢氧化钠	-16666
现在正在	-16667
的事情了	-16668
看了一下	-16669
那么多了	-16670
ac	-16671
专程	-16672
幽灵	-16673
抱住	-16674
有看	-16675
没死	-16676
荣华	-16677
著作	-16678
蒸汽	-16679
虐待	-16680
衡量	-16681
补给	-16682
谈过	-16683
运算	-16684
重建	-16685
镖局	-16686
▁算是	-16687
主演的	-16688
受了伤	-16689
和大家	-16690
它就会	-16691
就这个	-16692
接着说	-16693
深深的	-16694
迎来了	-16695
这一年	-16696
进去的	-16697
真的是很	-16698
踏踏实实	-16699
我跟你说啊	-16700
事变	-16701
他这	-16702
信吗	-16703
制止	-16704
可比	-16705
可用	-16706
吧好	-16707
国有	-16708
塔拉	-16709
外围	-16710
大为	-16711
悠闲	-16712
收益	-16713
有小	-16714
正想	-16715
督察	-16716
课题	-16717
▁一阵	-16718
▁小鹿	-16719
今天要	-16720
国家和	-16721
地站在	-16722
太棒了	-16723
方程为	-16724
最关键	-16725
的经验	-16726
躲起来	-16727
▁小女孩	-16728
▁就是一个	-16729
▁办	-16730
▁落	-16731
▁隆	-16732
万年	-16733
不散	-16734
不进	-16735
五次	-16736
假扮	-16737
出马	-16738
南山	-16739
奶粉	-16740
定理	-16741
慷慨	-16742
望远	-16743
查查	-16744
死得	-16745
渡过	-16746
痊愈	-16747
的点	-16748
织女	-16749
补补	-16750
迈克	-16751
▁你带	-16752
▁说起	-16753
不说话	-16754
你只要	-16755
我回去	-16756
的材料	-16757
篇文章	-16758
▁好吧我	-16759
▁我建议	-16760
就回来了	-16761
二零一八年	-16762
有什么关系啊	-16763
专制	-16764
两者	-16765
也叫	-16766
争气	-16767
全村	-16768
准了	-16769
区区	-16770
国共	-16771
大汉	-16772
悲惨	-16773
戒备	-16774
把您	-16775
日出	-16776
朝中	-16777
清新	-16778
牵挂	-16779
笑的	-16780
筹备	-16781
那家	-16782
▁两只	-16783
▁小青	-16784
伤心地	-16785
保险柜	-16786
宝贵的	-16787
害死了	-16788
市场上	-16789
帮不上	-16790
当时是	-16791
打败了	-16792
是一部	-16793
着这个	-16794
给你了	-16795
▁在我的	-16796
▁她不是	-16797
▁怎么办	-16798
▁我们还	-16799
▁我是在	-16800
▁是我的	-16801
其实我们	-16802
平平安安	-16803
▁我觉得这	-16804
从现在开始	-16805
38	-16806
▁藏	-16807
不聊	-16808
世了	-16809
主播	-16810
勾引	-16811
压迫	-16812
又去	-16813
太极	-16814
就吃	-16815
崇利	-16816
救助	-16817
杜鹃	-16818
比武	-16819
水泥	-16820
漫长	-16821
灵鸟	-16822
独家	-16823
要杀	-16824
谁了	-16825
陈述	-16826
▁吃了	-16827
▁父皇	-16828
儿姑娘	-16829
最开始	-16830
永远都	-16831
游乐场	-16832
给忘了	-16833
▁你是想	-16834
▁大伙儿	-16835
两个人的	-16836
▁他是不是	-16837
▁你知道我	-16838
▁忙	-16839
主体	-16840
历程	-16841
和睦	-16842
大理	-16843
天平	-16844
奔波	-16845
并联	-16846
开张	-16847
扔掉	-16848
来电	-16849
的铁	-16850
算数	-16851
老李	-16852
越过	-16853
▁你老	-16854
▁加油	-16855
▁就想	-16856
之后再	-16857
去找她	-16858
太小了	-16859
应该说	-16860
感觉很	-16861
我就说	-16862
根本不	-16863
然后在	-16864
的记忆	-16865
给我送	-16866
被发现	-16867
是越来越	-16868
两手	-16869
乾坤	-16870
会来	-16871
后宫	-16872
因数	-16873
国人	-16874
大雪	-16875
完呢	-16876
封印	-16877
屋檐	-16878
忘掉	-16879
框架	-16880
痛哭	-16881
追捕	-16882
▁我做	-16883
他也不	-16884
后来的	-16885
我错了	-16886
是需要	-16887
说妈妈	-16888
道路上	-16889
▁你肯定	-16890
公安机关	-16891
检查一下	-16892
▁仅	-16893
催化	-16894
其人	-16895
好话	-16896
异性	-16897
慢了	-16898
拼搏	-16899
洋人	-16900
添乱	-16901
管闲	-16902
纸张	-16903
美军	-16904
讲啊	-16905
迎面	-16906
部件	-16907
麦克	-16908
▁不必	-16909
▁人的	-16910
▁此人	-16911
▁组织	-16912
▁见过	-16913
了吧你	-16914
你们说	-16915
却发现	-16916
基因型	-16917
比方说	-16918
▁一九五	-16919
不是很好	-16920
你看了吗	-16921
年轻人的	-16922
▁那天晚上	-16923
▁墨	-16924
▁尚	-16925
主导	-16926
体能	-16927
做起	-16928
城中	-16929
审问	-16930
少量	-16931
延伸	-16932
打呀	-16933
椭圆	-16934
点吧	-16935
相邻	-16936
肺炎	-16937
胎教	-16938
▁何必	-16939
▁嘻嘻	-16940
▁小黑	-16941
不想再	-16942
冰淇淋	-16943
对面的	-16944
将军的	-16945
就是啊	-16946
很漂亮	-16947
总书记	-16948
成熟的	-16949
才刚刚	-16950
欢迎您	-16951
老板的	-16952
薛平贵	-16953
▁你以前	-16954
一点一点	-16955
大家都在	-16956
留下来的	-16957
▁我是不会	-16958
物体的运动	-16959
一匹	-16960
不还	-16961
为师	-16962
仍旧	-16963
儿俩	-16964
安安	-16965
干旱	-16966
有力	-16967
桃六	-16968
榴弹	-16969
滑冰	-16970
留个	-16971
终结	-16972
绝缘	-16973
胜仗	-16974
蚂蚱	-16975
这颗	-16976
▁他叫	-16977
以后你	-16978
拍电影	-16979
有意义	-16980
林振海	-16981
的反应	-16982
运用了	-16983
▁公元前	-16984
吃的东西	-16985
接受不了	-16986
这是一种	-16987
▁郝	-16988
介入	-16989
县衙	-16990
名词	-16991
咋了	-16992
宝玉	-16993
我老	-16994
拖累	-16995
请看	-16996
还请	-16997
二十岁	-16998
和她的	-16999
啊因为	-17000
就是把	-17001
影响力	-17002
我来说	-17003
机会了	-17004
没有用	-17005
相对于	-17006
远一点	-17007
▁对就是	-17008
▁越来越	-17009
▁那要是	-17010
▁难道是	-17011
▁你们这些	-17012
▁我一直在	-17013
▁你怎么这么	-17014
02	-17015
严峻	-17016
云彩	-17017
他用	-17018
偏僻	-17019
制片	-17020
刷刷	-17021
化验	-17022
失忆	-17023
它也	-17024
情深	-17025
撒娇	-17026
撞了	-17027
易欢	-17028
汗水	-17029
狩猎	-17030
登门	-17031
等的	-17032
负面	-17033
风中	-17034
▁工程	-17035
▁是有	-17036
不要去	-17037
在她的	-17038
外星人	-17039
我就去	-17040
最新的	-17041
演员的	-17042
管理员	-17043
顾不上	-17044
▁这辈子	-17045
很多时候	-17046
目前为止	-17047
▁我最喜欢	-17048
还没来得及	-17049
▁里	-17050
▁雅	-17051
不妨	-17052
之夜	-17053
做做	-17054
先来	-17055
利索	-17056
嘛你	-17057
复活	-17058
失了	-17059
尖叫	-17060
把刀	-17061
排水	-17062
生不	-17063
种地	-17064
莱坞	-17065
轮胎	-17066
辫子	-17067
那头	-17068
都对	-17069
锦赛	-17070
马来	-17071
高声	-17072
▁唯一	-17073
▁设计	-17074
▁这还	-17075
▁那要	-17076
不能去	-17077
他知道	-17078
太阳光	-17079
好好说	-17080
快到了	-17081
打破了	-17082
报纸上	-17083
无数的	-17084
星期天	-17085
本来是	-17086
王殿下	-17087
苹果的	-17088
▁那这样	-17089
一个新的	-17090
共产党员	-17091
我们家的	-17092
▁他一定会	-17093
▁晋	-17094
不累	-17095
兜里	-17096
养伤	-17097
北宋	-17098
后退	-17099
批货	-17100
步步	-17101
永恒	-17102
等她	-17103
辨认	-17104
▁从而	-17105
▁距离	-17106
▁这老	-17107
了解的	-17108
他就会	-17109
传来了	-17110
厨房里	-17111
啊那个	-17112
帮帮忙	-17113
成正比	-17114
提到的	-17115
熊妈妈	-17116
跑不了	-17117
这么干	-17118
二十分钟	-17119
文化遗产	-17120
都有可能	-17121
▁这个事情	-17122
Cu	-17123
▁圣	-17124
中统	-17125
买单	-17126
人所	-17127
你坐	-17128
几岁	-17129
凳子	-17130
午餐	-17131
哎我	-17132
喜事	-17133
在心	-17134
大衣	-17135
寿命	-17136
小虎	-17137
岛的	-17138
念书	-17139
推销	-17140
汉斯	-17141
深情	-17142
然然	-17143
王家	-17144
的把	-17145
等差	-17146
系数	-17147
至关	-17148
葵花	-17149
跟老	-17150
间接	-17151
黄帝	-17152
▁他一	-17153
▁农民	-17154
和自己	-17155
太累了	-17156
委书记	-17157
就因为	-17158
打一个	-17159
▁所以在	-17160
今天早上	-17161
喜欢的人	-17162
是不是有	-17163
跟我说话	-17164
还有就是	-17165
吃饭的时候	-17166
上司	-17167
义气	-17168
二三	-17169
则天	-17170
发泄	-17171
呢又	-17172
大炮	-17173
奢侈	-17174
安门	-17175
幅度	-17176
扔下	-17177
无机	-17178
果树	-17179
熟练	-17180
装满	-17181
要了	-17182
话可	-17183
谁家	-17184
遂昌	-17185
预算	-17186
▁一路	-17187
▁部队	-17188
亲自去	-17189
他们把	-17190
你的手	-17191
副局长	-17192
在里边	-17193
挺多的	-17194
无辜的	-17195
椅子上	-17196
没意思	-17197
的出现	-17198
表现得	-17199
▁我们得	-17200
▁这是个	-17201
怎么办哪	-17202
想要什么	-17203
我是不会	-17204
现在就是	-17205
看看这个	-17206
终于可以	-17207
▁你这不是	-17208
▁千万不能	-17209
▁招	-17210
▁杰	-17211
不急	-17212
于此	-17213
侍女	-17214
冠名	-17215
前期	-17216
叹息	-17217
城内	-17218
多啊	-17219
害人	-17220
对联	-17221
就地	-17222
开庭	-17223
朱莉	-17224
楼里	-17225
烟囱	-17226
牛逼	-17227
等地	-17228
跳的	-17229
风流	-17230
▁可见	-17231
▁同志	-17232
▁很有	-17233
加起来	-17234
的权利	-17235
真正地	-17236
说明了	-17237
跑一趟	-17238
跟一个	-17239
这是你	-17240
▁我对你	-17241
一样东西	-17242
你跟我说	-17243
▁谢谢你啊	-17244
一点儿也不	-17245
有什么样的	-17246
不知道为什么	-17247
▁游	-17248
书生	-17249
全班	-17250
制服	-17251
名额	-17252
启发	-17253
士气	-17254
好不	-17255
孕妇	-17256
总有	-17257
成龙	-17258
我哪	-17259
播放	-17260
料到	-17261
无愧	-17262
是假	-17263
爱他	-17264
硬盘	-17265
窗子	-17266
肩上	-17267
苦啊	-17268
钱哪	-17269
顽皮	-17270
▁一下	-17271
▁儿臣	-17272
为这个	-17273
呢也是	-17274
湖人队	-17275
的风格	-17276
说你看	-17277
▁你最好	-17278
▁你还不	-17279
▁对了我	-17280
三天三夜	-17281
留在这里	-17282
通过这个	-17283
AC	-17284
▁欧	-17285
世的	-17286
先行	-17287
利物	-17288
反常	-17289
口口	-17290
同步	-17291
坚固	-17292
天后	-17293
头晕	-17294
揭开	-17295
晚会	-17296
曲折	-17297
残疾	-17298
球场	-17299
监护	-17300
磁极	-17301
精通	-17302
考了	-17303
节省	-17304
说去	-17305
那点	-17306
问候	-17307
餐桌	-17308
魔方	-17309
▁这座	-17310
一只手	-17311
三个字	-17312
他说我	-17313
开心啊	-17314
想象的	-17315
担心的	-17316
无能为	-17317
更高的	-17318
清楚的	-17319
的形象	-17320
的情报	-17321
身上了	-17322
还是蛮	-17323
采用了	-17324
麻烦您	-17325
▁熊妈妈	-17326
化学反应	-17327
各种各样	-17328
帝国主义	-17329
▁我什么时候	-17330
▁樊	-17331
下雪	-17332
二话	-17333
医治	-17334
华丽	-17335
受益	-17336
告示	-17337
地毯	-17338
外线	-17339
太原	-17340
强壮	-17341
溶质	-17342
点是	-17343
的哦	-17344
盖上	-17345
钱都	-17346
闹事	-17347
吃了一	-17348
指南针	-17349
的使用	-17350
给我发	-17351
要跟你	-17352
迅速地	-17353
那个是	-17354
不是因为	-17355
他的妻子	-17356
实际上是	-17357
▁市	-17358
▁翠	-17359
上官	-17360
为生	-17361
书籍	-17362
五分	-17363
体操	-17364
到小	-17365
吗嗯	-17366
四岁	-17367
姐你	-17368
宅子	-17369
年年	-17370
张扬	-17371
晕倒	-17372
的活	-17373
论坛	-17374
进京	-17375
长在	-17376
cen	-17377
▁妻子	-17378
▁姥姥	-17379
▁是她	-17380
▁还挺	-17381
你是在	-17382
使劲地	-17383
关系啊	-17384
啊或者	-17385
大小的	-17386
拿这个	-17387
的眼神	-17388
要好好	-17389
这房子	-17390
▁我决定	-17391
上上下下	-17392
最后还是	-17393
生活方式	-17394
55	-17395
▁怪	-17396
▁承	-17397
之手	-17398
失业	-17399
引领	-17400
强国	-17401
旁观	-17402
是死	-17403
机动	-17404
标题	-17405
步行	-17406
沿途	-17407
留情	-17408
直奔	-17409
肉的	-17410
蛋壳	-17411
豪华	-17412
运送	-17413
逆转	-17414
零八	-17415
▁美丽	-17416
中没有	-17417
了是吗	-17418
利物浦	-17419
别人家	-17420
只要有	-17421
在身边	-17422
的能量	-17423
看过了	-17424
眼看着	-17425
继承人	-17426
▁一路上	-17427
不知道了	-17428
▁那你现在	-17429
▁提	-17430
为民	-17431
伤病	-17432
傻呀	-17433
军中	-17434
动态	-17435
大厨	-17436
威武	-17437
就往	-17438
报应	-17439
放屁	-17440
故障	-17441
楠楠	-17442
洋葱	-17443
洛杉	-17444
演得	-17445
特效	-17446
着它	-17447
薄的	-17448
顺风	-17449
▁乐乐	-17450
▁立即	-17451
▁观众	-17452
专案组	-17453
买不起	-17454
了一夜	-17455
你一句	-17456
你平时	-17457
的音乐	-17458
都特别	-17459
▁不会是	-17460
▁他们说	-17461
▁你跟他	-17462
▁让你们	-17463
▁这东西	-17464
吃点东西	-17465
CH	-17466
中途	-17467
佳慧	-17468
吧哎	-17469
坐上	-17470
坐了	-17471
姐的	-17472
小姨	-17473
带头	-17474
干点	-17475
张罗	-17476
急需	-17477
我当	-17478
捐款	-17479
掌管	-17480
斧头	-17481
来打	-17482
疼啊	-17483
瘟疫	-17484
般配	-17485
要要	-17486
逛逛	-17487
黄昏	-17488
一大堆	-17489
不是个	-17490
不能吃	-17491
医生的	-17492
听你说	-17493
大哥的	-17494
开开心	-17495
很了解	-17496
我个人	-17497
我看见	-17498
有危险	-17499
没有钱	-17500
的心思	-17501
▁关键是	-17502
▁我非常	-17503
▁这么快	-17504
反正就是	-17505
喜欢这个	-17506
回来以后	-17507
怎么处理	-17508
这么做的	-17509
cente	-17510
就是这样的	-17511
这个世界上	-17512
78	-17513
三尺	-17514
丸子	-17515
初心	-17516
包了	-17517
北大	-17518
叛逆	-17519
女兵	-17520
对人	-17521
层层	-17522
我你	-17523
报社	-17524
挥手	-17525
日在	-17526
贪污	-17527
走私	-17528
郁闷	-17529
韦勒	-17530
飞奔	-17531
▁一千	-17532
▁好在	-17533
▁还望	-17534
好兄弟	-17535
没有你	-17536
▁你一个	-17537
▁我只想	-17538
▁你放心吧	-17539
▁我就不信	-17540
▁尹	-17541
上呢	-17542
书店	-17543
从天	-17544
优美	-17545
内战	-17546
唱片	-17547
好酒	-17548
徒刑	-17549
摔跤	-17550
摸了	-17551
施展	-17552
是做	-17553
眼界	-17554
科考	-17555
老马	-17556
▁小美	-17557
吃不了	-17558
家庭的	-17559
小公主	-17560
山上的	-17561
比我更	-17562
直升机	-17563
看到她	-17564
这次来	-17565
通知你	-17566
▁一直在	-17567
▁但如果	-17568
▁那你的	-17569
住在一起	-17570
停了下来	-17571
喜不喜欢	-17572
在水面上	-17573
我很喜欢	-17574
centerline	-17575
▁投	-17576
▁造	-17577
上床	-17578
加了	-17579
医务	-17580
台的	-17581
外观	-17582
就一	-17583
平稳	-17584
总比	-17585
您也	-17586
成群	-17587
拍着	-17588
放火	-17589
私事	-17590
脸皮	-17591
自卑	-17592
要好	-17593
设定	-17594
诚信	-17595
面貌	-17596
高地	-17597
鸡毛	-17598
▁平常	-17599
崇利明	-17600
惦记着	-17601
我就能	-17602
的最小	-17603
的老师	-17604
载重量	-17605
逃跑了	-17606
▁是什么	-17607
▁这样啊	-17608
不敢相信	-17609
不知道该	-17610
你干什么	-17611
直线传播	-17612
▁我怎么能	-17613
不忙	-17614
业余	-17615
乡的	-17616
人嘛	-17617
兑现	-17618
兴起	-17619
军部	-17620
她对	-17621
尼克	-17622
排开	-17623
没在	-17624
湿度	-17625
烟雾	-17626
耻辱	-17627
茶馆	-17628
莫雷	-17629
落脚	-17630
起步	-17631
顶级	-17632
鼓鼓	-17633
▁发展	-17634
▁第四	-17635
不利于	-17636
先回去	-17637
女嘉宾	-17638
的人哪	-17639
的政治	-17640
的是他	-17641
的生日	-17642
绝不能	-17643
▁一只小	-17644
▁不用了	-17645
▁弗兰克	-17646
▁跟我们	-17647
也是因为	-17648
工业革命	-17649
特别好的	-17650
▁所以我才	-17651
▁刀	-17652
▁银	-17653
丈母	-17654
上岸	-17655
也去	-17656
养育	-17657
实用	-17658
家产	-17659
山路	-17660
惯了	-17661
战事	-17662
隔着	-17663
▁政委	-17664
听他的	-17665
意外的	-17666
洛杉矶	-17667
的地步	-17668
知识的	-17669
自己来	-17670
重要了	-17671
飞到了	-17672
▁过两天	-17673
不是已经	-17674
怎么说的	-17675
无可奈何	-17676
的事儿了	-17677
上他	-17678
会使	-17679
北上	-17680
双鞋	-17681
大林	-17682
奖项	-17683
子代	-17684
得下	-17685
拦着	-17686
是两	-17687
毁掉	-17688
比为	-17689
气和	-17690
潜艇	-17691
访问	-17692
诺言	-17693
300	-17694
▁不断	-17695
▁眼看	-17696
一个很	-17697
一直很	-17698
不注意	-17699
可好了	-17700
回答道	-17701
家里边	-17702
我出去	-17703
是一些	-17704
有人说	-17705
有点不	-17706
来看我	-17707
笼子里	-17708
跟你爸	-17709
都是他	-17710
告诉你啊	-17711
已经成为	-17712
我有一个	-17713
是不是很	-17714
的小动物	-17715
上就	-17716
儿呢	-17717
到那	-17718
制品	-17719
历代	-17720
发热	-17721
外科	-17722
大有	-17723
奇葩	-17724
搬走	-17725
改正	-17726
效益	-17727
每周	-17728
流淌	-17729
美景	-17730
老爹	-17731
藏身	-17732
请进	-17733
这俩	-17734
陪陪	-17735
雨禾	-17736
韩信	-17737
▁了解	-17738
▁到处	-17739
▁朝廷	-17740
▁皮皮	-17741
一无所	-17742
不知所	-17743
做的事	-17744
到医院	-17745
同志啊	-17746
和社会	-17747
在国外	-17748
好久没	-17749
您这是	-17750
理解的	-17751
的人选	-17752
见不着	-17753
讲道理	-17754
是你自己	-17755
亮平	-17756
先回	-17757
别想	-17758
到她	-17759
堆里	-17760
小李	-17761
战乱	-17762
正白	-17763
水桶	-17764
温和	-17765
签署	-17766
纯洁	-17767
进山	-17768
马虎	-17769
黎明	-17770
▁你从	-17771
了一道	-17772
去了啊	-17773
城市里	-17774
开始吧	-17775
最主要	-17776
解决的	-17777
还是没	-17778
▁你认为	-17779
你怎么不	-17780
等一会儿	-17781
还有这个	-17782
▁这个东西	-17783
▁那你为什么	-17784
▁章	-17785
▁题	-17786
主帅	-17787
传出	-17788
决不	-17789
到家	-17790
师座	-17791
性别	-17792
打法	-17793
接手	-17794
最先	-17795
演艺	-17796
电商	-17797
而易	-17798
脱口	-17799
长两	-17800
静华	-17801
鞋匠	-17802
▁凡是	-17803
▁衣服	-17804
不能用	-17805
你的命	-17806
出生的	-17807
帮助你	-17808
忙着呢	-17809
我是在	-17810
所以在	-17811
明天就	-17812
留学生	-17813
稳定的	-17814
类似于	-17815
给了你	-17816
联系了	-17817
赶到了	-17818
都是很	-17819
随便便	-17820
偷偷摸摸	-17821
全力以赴	-17822
救命之恩	-17823
杭州面馆	-17824
不复	-17825
他啊	-17826
再好	-17827
冰块	-17828
别怕	-17829
劫持	-17830
名著	-17831
宇航	-17832
射线	-17833
无踪	-17834
林子	-17835
洞宾	-17836
漂浮	-17837
绿叶	-17838
编织	-17839
躲到	-17840
▁相传	-17841
会受到	-17842
啥意思	-17843
国务院	-17844
样东西	-17845
玩手机	-17846
的视频	-17847
要小心	-17848
让他去	-17849
那是我	-17850
▁现在你	-17851
随便看看	-17852
▁你告诉我	-17853
▁我也不想	-17854
▁冲	-17855
▁富	-17856
余年	-17857
八方	-17858
出嫁	-17859
动荡	-17860
和红	-17861
大黄	-17862
嫌我	-17863
实情	-17864
植株	-17865
湿了	-17866
潜力	-17867
着啊	-17868
练功	-17869
美貌	-17870
老白	-17871
衬衫	-17872
誓言	-17873
贩毒	-17874
闲话	-17875
随风	-17876
▁燕子	-17877
不多了	-17878
他可是	-17879
呀就是	-17880
多少年	-17881
得罪了	-17882
新衣服	-17883
测量的	-17884
的希望	-17885
远远的	-17886
▁这真是	-17887
▁都给我	-17888
但是他们	-17889
想起来了	-17890
更多的是	-17891
这张照片	-17892
前程	-17893
剿匪	-17894
区间	-17895
固然	-17896
壁虎	-17897
害得	-17898
尔斯	-17899
恨我	-17900
教书	-17901
的血	-17902
看去	-17903
立足	-17904
解说	-17905
赞叹	-17906
都做	-17907
量为	-17908
▁还想	-17909
▁这部	-17910
你们也	-17911
可能在	-17912
大事儿	-17913
慢点啊	-17914
把这事	-17915
的一名	-17916
突然就	-17917
等于是	-17918
里边请	-17919
▁中国人	-17920
▁你难道	-17921
▁好好地	-17922
我觉得她	-17923
我觉得这	-17924
电话号码	-17925
的小女孩	-17926
▁前段时间	-17927
▁副	-17928
三朵	-17929
交出	-17930
入党	-17931
北部	-17932
台下	-17933
巧妙	-17934
张望	-17935
当前	-17936
登山	-17937
的四	-17938
石榴	-17939
破裂	-17940
称作	-17941
赛场	-17942
▁太太	-17943
二维码	-17944
向大家	-17945
好奇心	-17946
就是被	-17947
心目中	-17948
是属于	-17949
更容易	-17950
果然是	-17951
氧化物	-17952
统一的	-17953
那咱们	-17954
▁哎我说	-17955
一个男人	-17956
你的名字	-17957
妈妈的话	-17958
有很大的	-17959
野生动物	-17960
▁举	-17961
▁镇	-17962
一宿	-17963
九号	-17964
二手	-17965
外力	-17966
多彩	-17967
小刀	-17968
小胖	-17969
旋律	-17970
束缚	-17971
模范	-17972
歇息	-17973
比亚	-17974
猫的	-17975
知县	-17976
破碎	-17977
离我	-17978
箱里	-17979
缸里	-17980
罐头	-17981
脏了	-17982
还多	-17983
送上	-17984
青丘	-17985
▁嗯对	-17986
▁新的	-17987
▁新闻	-17988
▁猎人	-17989
▁王后	-17990
▁确定	-17991
▁说我	-17992
合适吗	-17993
把她给	-17994
是哪个	-17995
棵大树	-17996
物理学	-17997
玩什么	-17998
说不出	-17999
▁我就要	-18000
和我一起	-18001
是最好的	-18002
每天都要	-18003
离开这儿	-18004
▁我只是想	-18005
那么长时间	-18006
上火	-18007
人又	-18008
但却	-18009
去抓	-18010
合约	-18011
告知	-18012
复婚	-18013
她妈	-18014
安娜	-18015
山中	-18016
平板	-18017
捡起	-18018
汽油	-18019
波浪	-18020
照耀	-18021
爱听	-18022
珍妮	-18023
甘肃	-18024
睁眼	-18025
笼罩	-18026
茄子	-18027
还剩	-18028
阵子	-18029
风水	-18030
110	-18031
▁我太	-18032
不值得	-18033
动植物	-18034
回答我	-18035
国防部	-18036
怎么跟	-18037
把衣服	-18038
结婚证	-18039
艺术的	-18040
表现了	-18041
要知道	-18042
轻易地	-18043
▁又不是	-18044
▁我个人	-18045
▁看样子	-18046
已经有了	-18047
明天早上	-18048
肯定不是	-18049
▁摆	-18050
▁纵	-18051
不也	-18052
不经	-18053
中所	-18054
从今	-18055
光顾	-18056
初期	-18057
叫醒	-18058
哪是	-18059
度假	-18060
开创	-18061
忽视	-18062
报酬	-18063
摘下	-18064
文献	-18065
杯茶	-18066
理会	-18067
看吗	-18068
看错	-18069
确切	-18070
能使	-18071
脱贫	-18072
表弟	-18073
透气	-18074
▁多多	-18075
▁往后	-18076
▁飞机	-18077
不行的	-18078
停止了	-18079
分开了	-18080
去了解	-18081
各自的	-18082
在公司	-18083
对应的	-18084
影响了	-18085
我们对	-18086
时间和	-18087
说没有	-18088
过来啊	-18089
长得像	-18090
项目的	-18091
亲眼看见	-18092
急急忙忙	-18093
意思是说	-18094
看了一眼	-18095
▁这有什么	-18096
在这个地方	-18097
▁正确答案是	-18098
一拍	-18099
会做	-18100
入手	-18101
冰川	-18102
反攻	-18103
叫到	-18104
并在	-18105
式为	-18106
我连	-18107
曝光	-18108
最难	-18109
有这	-18110
派了	-18111
立法	-18112
精度	-18113
绑匪	-18114
维斯	-18115
越南	-18116
▁但她	-18117
▁她想	-18118
▁无法	-18119
▁蝴蝶	-18120
健康的	-18121
发光的	-18122
才开始	-18123
拼多多	-18124
拿回去	-18125
有一段	-18126
有关注	-18127
火箭队	-18128
狐狸精	-18129
计划的	-18130
那么远	-18131
都应该	-18132
▁你一直	-18133
也不容易	-18134
你们自己	-18135
就是他的	-18136
▁我们没有	-18137
▁现在这个	-18138
七七	-18139
不醒	-18140
两步	-18141
中药	-18142
从容	-18143
住房	-18144
作义	-18145
图画	-18146
对策	-18147
扶持	-18148
捂着	-18149
搏斗	-18150
波动	-18151
采摘	-18152
长啊	-18153
长途	-18154
闻名	-18155
飞呀	-18156
▁不不	-18157
▁共同	-18158
▁快快	-18159
双十一	-18160
啊这些	-18161
的可是	-18162
跟你的	-18163
▁但现在	-18164
▁如果不	-18165
▁给你们	-18166
▁要不你	-18167
叽叽喳喳	-18168
五颜六色的	-18169
一瞧	-18170
买房	-18171
倡导	-18172
到手	-18173
受精	-18174
口音	-18175
宣言	-18176
心协	-18177
找您	-18178
机智	-18179
空空	-18180
纠正	-18181
红灯	-18182
能和	-18183
高强	-18184
鼓起	-18185
▁他用	-18186
▁十五	-18187
▁去找	-18188
▁技术	-18189
▁汽车	-18190
向他们	-18191
喝醉了	-18192
就有了	-18193
很快乐	-18194
我这边	-18195
的数量	-18196
的胜利	-18197
看比赛	-18198
真的会	-18199
这么早	-18200
一点关系	-18201
你也不能	-18202
就不见了	-18203
绝对不是	-18204
这次比赛	-18205
▁记	-18206
不稳	-18207
临走	-18208
停留	-18209
呢嗯	-18210
喵喵	-18211
如实	-18212
局限	-18213
府的	-18214
惊蛇	-18215
操纵	-18216
日葵	-18217
明媚	-18218
欣欣	-18219
派遣	-18220
皮毛	-18221
直流	-18222
眼熟	-18223
节的	-18224
装扮	-18225
近视	-18226
迷茫	-18227
闷闷	-18228
随从	-18229
颜料	-18230
▁剩下	-18231
偷东西	-18232
我也得	-18233
的线索	-18234
耳朵里	-18235
说咱们	-18236
这些小	-18237
▁告诉我	-18238
▁我妈妈	-18239
你们可以	-18240
放在心上	-18241
得差不多了	-18242
这么多年的	-18243
48	-18244
不正	-18245
分割	-18246
分化	-18247
南宋	-18248
发给	-18249
比对	-18250
水滴	-18251
活命	-18252
清清	-18253
点子	-18254
红花	-18255
要先	-18256
谁知	-18257
都像	-18258
▁也得	-18259
▁小鸡	-18260
上面有	-18261
也没人	-18262
什么好	-18263
好像有	-18264
完以后	-18265
特有的	-18266
表面的	-18267
还怎么	-18268
陪我去	-18269
▁他们要	-18270
▁包大人	-18271
▁怎么还	-18272
▁来我们	-18273
你们几个	-18274
吓死我了	-18275
有些事情	-18276
的基础上	-18277
那个女人	-18278
出什么事儿	-18279
出现了一个	-18280
mg	-18281
▁辛	-18282
下回	-18283
不凡	-18284
了太	-18285
交谈	-18286
大鹏	-18287
天王	-18288
学业	-18289
布鲁	-18290
感人	-18291
戏曲	-18292
打水	-18293
旨在	-18294
梯子	-18295
气喘	-18296
清脆	-18297
空白	-18298
过往	-18299
那颗	-18300
酒楼	-18301
鉴别	-18302
▁这倒	-18303
付出的	-18304
但还是	-18305
吴三桂	-18306
地面上	-18307
姐姐的	-18308
打比赛	-18309
的倍数	-18310
的大学	-18311
精神的	-18312
里的人	-18313
▁就好像	-18314
▁我看着	-18315
我也不能	-18316
无能为力	-18317
联系方式	-18318
谢谢你了	-18319
才是真正的	-18320
的一件事情	-18321
▁岳	-18322
▁论	-18323
一岁	-18324
也无	-18325
休养	-18326
刚来	-18327
十岁	-18328
叫它	-18329
坐到	-18330
孝兴	-18331
庆功	-18332
成像	-18333
放你	-18334
无赖	-18335
汉姆	-18336
球球	-18337
秘方	-18338
茉莉	-18339
被逼	-18340
还钱	-18341
雷达	-18342
one	-18343
严格的	-18344
也无法	-18345
展开了	-18346
差点儿	-18347
我非常	-18348
把一个	-18349
望远镜	-18350
没想过	-18351
的痕迹	-18352
过很多	-18353
送来了	-18354
▁好的我	-18355
▁就知道	-18356
▁那既然	-18357
总有一天	-18358
挺不错的	-18359
属于自己的	-18360
接下来我们	-18361
▁童	-18362
两大	-18363
了是	-18364
交接	-18365
亲妈	-18366
入宫	-18367
军令	-18368
吃草	-18369
大惊	-18370
失控	-18371
帆船	-18372
新冠	-18373
果果	-18374
款的	-18375
毫升	-18376
没想	-18377
点水	-18378
理所	-18379
留住	-18380
留步	-18381
监察	-18382
积分	-18383
紫禁	-18384
谋杀	-18385
踢得	-18386
▁下官	-18387
▁不到	-18388
▁土壤	-18389
▁大伙	-18390
▁而我	-18391
▁调查	-18392
交给他	-18393
优美的	-18394
做我的	-18395
天下午	-18396
打开门	-18397
新能源	-18398
春天的	-18399
热烈的	-18400
爱好者	-18401
现在呢	-18402
跳出来	-18403
这笔钱	-18404
太阳公公	-18405
对于我们	-18406
▁段	-18407
丁隐	-18408
三名	-18409
云天	-18410
传闻	-18411
借鉴	-18412
几下	-18413
凡是	-18414
合计	-18415
四方	-18416
学科	-18417
家常	-18418
小王	-18419
差事	-18420
急救	-18421
惯性	-18422
打草	-18423
散心	-18424
江边	-18425
流失	-18426
盲目	-18427
缺钱	-18428
而无	-18429
而知	-18430
菜啊	-18431
说大	-18432
跑着	-18433
达康	-18434
▁呃我	-18435
▁小羊	-18436
一天的	-18437
三十八	-18438
军队的	-18439
只有你	-18440
和你的	-18441
带领下	-18442
生气的	-18443
看见我	-18444
▁我就会	-18445
一定可以	-18446
我是觉得	-18447
▁我很喜欢	-18448
▁病	-18449
▁脚	-18450
一案	-18451
人他	-18452
你多	-18453
光头	-18454
军训	-18455
击毙	-18456
咱妈	-18457
地势	-18458
她都	-18459
如其	-18460
小张	-18461
差错	-18462
弓箭	-18463
扇门	-18464
拼音	-18465
是去	-18466
来历	-18467
游来	-18468
灿灿	-18469
照料	-18470
留言	-18471
的画	-18472
胆儿	-18473
表态	-18474
走我	-18475
郎平	-18476
▁啊对	-18477
▁就不	-18478
▁男主	-18479
他们能	-18480
再看看	-18481
去了吗	-18482
岁数了	-18483
当这个	-18484
很强的	-18485
期徒刑	-18486
标志着	-18487
现在这	-18488
的这一	-18489
都有了	-18490
▁你说得	-18491
没有看到	-18492
这样才能	-18493
▁你就这么	-18494
▁对不起啊	-18495
▁诗	-18496
不哭	-18497
几何	-18498
取值	-18499
如愿	-18500
嫂嫂	-18501
嫩的	-18502
就多	-18503
巡视	-18504
效忠	-18505
早在	-18506
是三	-18507
最深	-18508
月饼	-18509
格里	-18510
沉沉	-18511
海域	-18512
穿得	-18513
衍射	-18514
转悠	-18515
输赢	-18516
还了	-18517
齐国	-18518
▁只怕	-18519
▁谁敢	-18520
▁都怪	-18521
▁非得	-18522
一百多	-18523
再这么	-18524
出这个	-18525
吃掉了	-18526
啊你说	-18527
我在想	-18528
有兴趣	-18529
欺负你	-18530
然大悟	-18531
的尾巴	-18532
皇太后	-18533
空气的	-18534
老夫人	-18535
较大的	-18536
邓小平	-18537
▁咱们得	-18538
▁她要是	-18539
▁我只要	-18540
▁是啊你	-18541
实际情况	-18542
是因为我	-18543
还是可以	-18544
那么这个	-18545
的那种感觉	-18546
▁曲	-18547
丢掉	-18548
代号	-18549
十多	-18550
又从	-18551
发扬	-18552
喝吧	-18553
大伯	-18554
怨恨	-18555
接连	-18556
数十	-18557
狗子	-18558
猜猜	-18559
粉碎	-18560
肥皂	-18561
艾伦	-18562
跳楼	-18563
较劲	-18564
风头	-18565
▁专家	-18566
▁别的	-18567
▁当地	-18568
▁聪明	-18569
你肯定	-18570
关键是	-18571
应有的	-18572
我还不	-18573
才不会	-18574
是有点	-18575
细胞中	-18576
要跟我	-18577
这个啊	-18578
▁我从小	-18579
▁有一种	-18580
感受一下	-18581
送给你的	-18582
▁他们都是	-18583
变得越来越	-18584
生活在一起	-18585
▁极	-18586
▁赶	-18587
下属	-18588
亏待	-18589
侄女	-18590
内在	-18591
出售	-18592
匆忙	-18593
婶儿	-18594
山脉	-18595
戏了	-18596
我上	-18597
指引	-18598
旅客	-18599
时应	-18600
汉代	-18601
白费	-18602
省的	-18603
社团	-18604
脱下	-18605
不听话	-18606
传出去	-18607
只有在	-18608
地方的	-18609
比起来	-18610
永远是	-18611
生态瓶	-18612
的发生	-18613
的情绪	-18614
的气味	-18615
的资料	-18616
着他的	-18617
▁组织上	-18618
因为我的	-18619
是什么吗	-18620
的事儿吗	-18621
苹果手机	-18622
到底是不是	-18623
我们两个人	-18624
丫丫	-18625
人品	-18626
大餐	-18627
我更	-18628
拓展	-18629
期限	-18630
江水	-18631
法宝	-18632
灰色	-18633
点赞	-18634
犹太	-18635
相应	-18636
石块	-18637
给打	-18638
若干	-18639
闭合	-18640
▁周围	-18641
▁微臣	-18642
▁杰克	-18643
▁这块	-18644
不会的	-18645
勇敢的	-18646
哪儿去	-18647
沉重的	-18648
熊爸爸	-18649
的风险	-18650
结婚的	-18651
▁我一个	-18652
意想不到	-18653
找了一个	-18654
欢迎欢迎	-18655
汇报一下	-18656
这个道理	-18657
我们国家的	-18658
▁荣	-18659
▁闹	-18660
万多	-18661
再打	-18662
原点	-18663
又长	-18664
台风	-18665
城镇	-18666
延长	-18667
徘徊	-18668
成家	-18669
我送	-18670
抱起	-18671
挽救	-18672
教他	-18673
新婚	-18674
最怕	-18675
格兰	-18676
气呀	-18677
生育	-18678
由你	-18679
睡啊	-18680
胆量	-18681
采购	-18682
预报	-18683
▁很好	-18684
▁有事	-18685
▁毛毛	-18686
不是呢	-18687
不要了	-18688
了一根	-18689
二十六	-18690
六十五	-18691
十年前	-18692
地问道	-18693
安排了	-18694
应该去	-18695
总指挥	-18696
抓到了	-18697
明确的	-18698
更何况	-18699
的家庭	-18700
面临着	-18701
▁所以她	-18702
叔叔阿姨	-18703
想跟你说	-18704
▁与此同时	-18705
▁我给你们	-18706
▁这件事儿	-18707
上空	-18708
催促	-18709
再找	-18710
军师	-18711
容貌	-18712
就你	-18713
工的	-18714
常用	-18715
我多	-18716
无色	-18717
李梅	-18718
柏旭	-18719
比她	-18720
犀牛	-18721
猜想	-18722
田径	-18723
白兰	-18724
请请	-18725
▁帮助	-18726
▁难得	-18727
了我这	-18728
你愿意	-18729
学生们	-18730
找了个	-18731
的道理	-18732
真好看	-18733
统治者	-18734
莫斯科	-18735
鸡妈妈	-18736
▁题目中	-18737
会不会是	-18738
刚才那个	-18739
办案人员	-18740
所学可知	-18741
曾经说过	-18742
永远都是	-18743
点了点头	-18744
说的那个	-18745
▁你就不能	-18746
▁维	-18747
▁臭	-18748
不带	-18749
向南	-18750
和二	-18751
基督	-18752
大茂	-18753
奋战	-18754
御史	-18755
总能	-18756
无言	-18757
朦胧	-18758
百里	-18759
自习	-18760
西岐	-18761
请出	-18762
车队	-18763
追随	-18764
重用	-18765
铜锣	-18766
▁农夫	-18767
▁对的	-18768
▁彻底	-18769
▁给她	-18770
▁负责	-18771
上来的	-18772
体育课	-18773
做的是	-18774
有那个	-18775
特斯拉	-18776
的人在	-18777
的价值	-18778
要看看	-18779
都这样	-18780
▁他是我	-18781
受不了了	-18782
恍然大悟	-18783
接下来的	-18784
来了来了	-18785
这是你的	-18786
进去看看	-18787
▁哭	-18788
共识	-18789
分担	-18790
反驳	-18791
四肢	-18792
娜姐	-18793
栏目	-18794
满面	-18795
特定	-18796
画了	-18797
血缘	-18798
鞠躬	-18799
高压	-18800
龙山	-18801
东西都	-18802
之前就	-18803
在国内	-18804
孩子呢	-18805
我有个	-18806
来看你	-18807
甚至是	-18808
的压力	-18809
肺活量	-18810
都不太	-18811
▁一九九	-18812
厉害厉害	-18813
年纪大了	-18814
没有必要	-18815
然后那个	-18816
这么一说	-18817
我们的生活	-18818
所有的事情	-18819
▁领	-18820
仍在	-18821
功德	-18822
各式	-18823
嫁人	-18824
有为	-18825
注入	-18826
种族	-18827
腿上	-18828
莎莎	-18829
辅佐	-18830
铁蛋	-18831
雪莉	-18832
麦子	-18833
黄土	-18834
▁外婆	-18835
世界里	-18836
在树上	-18837
坐会儿	-18838
处理好	-18839
很严重	-18840
方便面	-18841
有哪些	-18842
的那位	-18843
行了吗	-18844
这也太	-18845
银行的	-18846
飞起来	-18847
▁我们把	-18848
▁我给您	-18849
了一辈子	-18850
全国人民	-18851
这么认为	-18852
▁引	-18853
不归	-18854
举措	-18855
书中	-18856
书啊	-18857
伤痕	-18858
修养	-18859
再到	-18860
刚落	-18861
勘查	-18862
包包	-18863
原告	-18864
吻合	-18865
大开	-18866
守在	-18867
将是	-18868
属实	-18869
数值	-18870
根廷	-18871
求出	-18872
睡的	-18873
窟窿	-18874
索性	-18875
药了	-18876
行军	-18877
要素	-18878
话啊	-18879
▁为啥	-18880
▁尽量	-18881
▁岩石	-18882
▁等等	-18883
以为我	-18884
制度的	-18885
完了我	-18886
怪怪的	-18887
放出来	-18888
第一部	-18889
▁他说我	-18890
▁那以后	-18891
▁都没有	-18892
你看你看	-18893
你说的是	-18894
的重要性	-18895
监控录像	-18896
跟我一样	-18897
的时候就是	-18898
▁村	-18899
一伙	-18900
上大	-18901
世民	-18902
乔治	-18903
仁义	-18904
回宫	-18905
声的	-18906
夜间	-18907
招了	-18908
畏惧	-18909
能用	-18910
讲到	-18911
走人	-18912
这口	-18913
鉴于	-18914
▁像我	-18915
▁此题	-18916
▁老三	-18917
也说了	-18918
从树上	-18919
前女友	-18920
又如何	-18921
大一点	-18922
快一点	-18923
是完全	-18924
电解质	-18925
确实挺	-18926
红烧肉	-18927
说过了	-18928
▁不应该	-18929
▁是那个	-18930
▁还是要	-18931
▁这么晚	-18932
出什么事	-18933
▁我们就是	-18934
▁这样的话	-18935
大家好我是	-18936
▁汤	-18937
一气	-18938
东部	-18939
天放	-18940
姐弟	-18941
小天	-18942
小队	-18943
山河	-18944
快船	-18945
捉弄	-18946
推翻	-18947
有四	-18948
海盗	-18949
的也	-18950
筛选	-18951
耀武	-18952
警报	-18953
遗体	-18954
长留	-18955
▁谁是	-18956
套房子	-18957
存在于	-18958
孩子都	-18959
放了我	-18960
新闻啊	-18961
溶于水	-18962
睡一觉	-18963
过山车	-18964
这个词	-18965
▁大部分	-18966
▁好了我	-18967
▁就算你	-18968
▁我的天	-18969
真不知道	-18970
赶紧回去	-18971
▁你这个人	-18972
眼睁睁地看着	-18973
▁结	-18974
不懈	-18975
不透	-18976
中全	-18977
传授	-18978
但不	-18979
你带	-18980
减弱	-18981
单单	-18982
实事	-18983
很早	-18984
挨打	-18985
朗读	-18986
流通	-18987
率先	-18988
王母	-18989
算盘	-18990
要买	-18991
许愿	-18992
诸多	-18993
赵国	-18994
轰隆	-18995
近日	-18996
黄埔	-18997
▁古代	-18998
一步步	-18999
不光是	-19000
之比为	-19001
五百万	-19002
化合价	-19003
奇怪了	-19004
急匆匆	-19005
控制的	-19006
有力的	-19007
池塘里	-19008
的大事	-19009
这个钱	-19010
▁你这次	-19011
▁只要我	-19012
你要不要	-19013
去看一看	-19014
又怎么样	-19015
我的名字	-19016
说对不起	-19017
▁甭	-19018
▁茶	-19019
▁首	-19020
一秒	-19021
三二	-19022
上万	-19023
东边	-19024
两队	-19025
主权	-19026
井里	-19027
享有	-19028
充实	-19029
养家	-19030
和马	-19031
围观	-19032
均衡	-19033
大楼	-19034
娘俩	-19035
强势	-19036
捕头	-19037
琵琶	-19038
管的	-19039
草草	-19040
遮挡	-19041
阿坏	-19042
顽固	-19043
鼻涕	-19044
▁一群	-19045
▁叫我	-19046
▁小象	-19047
▁总理	-19048
丈母娘	-19049
公子的	-19050
它那个	-19051
对我好	-19052
总是在	-19053
我都是	-19054
整个的	-19055
没有错	-19056
清楚地	-19057
▁有一些	-19058
他一个人	-19059
呢我觉得	-19060
▁久	-19061
上报	-19062
亲爹	-19063
从这	-19064
你却	-19065
你所	-19066
口令	-19067
心病	-19068
杀敌	-19069
清洗	-19070
温室	-19071
狭窄	-19072
等式	-19073
终止	-19074
茸茸	-19075
蔓延	-19076
输出	-19077
递给	-19078
锦衣	-19079
▁上级	-19080
▁干脆	-19081
不相同	-19082
了一步	-19083
做了个	-19084
刚才说	-19085
我爸妈	-19086
是那种	-19087
朋友了	-19088
的一幕	-19089
的粉丝	-19090
着急啊	-19091
肯定的	-19092
长两短	-19093
雪白的	-19094
▁就不会	-19095
▁老奶奶	-19096
他们现在	-19097
重新开始	-19098
▁小动物们	-19099
▁孔	-19100
上百	-19101
下官	-19102
凡人	-19103
动听	-19104
动摇	-19105
咱爸	-19106
婚约	-19107
抛物	-19108
拉丁	-19109
有啊	-19110
比拼	-19111
沈腾	-19112
没去	-19113
激光	-19114
灵机	-19115
第八	-19116
而上	-19117
而在	-19118
装进	-19119
话吗	-19120
▁听着	-19121
▁大爷	-19122
一起吃	-19123
了一批	-19124
其实在	-19125
创新的	-19126
到底要	-19127
吵架了	-19128
太阳系	-19129
家里来	-19130
我一下	-19131
我们想	-19132
把咱们	-19133
的生长	-19134
笑嘻嘻	-19135
这些钱	-19136
阿拉丁	-19137
▁那你还	-19138
参加比赛	-19139
少数民族	-19140
确实有点	-19141
笑了起来	-19142
赔礼道歉	-19143
▁如果他们	-19144
二零一六年	-19145
得干干净净	-19146
抗日根据地	-19147
▁e	-19148
一架	-19149
上加	-19150
义词	-19151
内阁	-19152
分钱	-19153
参军	-19154
发妹	-19155
取的	-19156
向右	-19157
坚硬	-19158
太郎	-19159
帮人	-19160
招聘	-19161
捉住	-19162
服用	-19163
樵夫	-19164
的火	-19165
看个	-19166
腰带	-19167
菜的	-19168
要对	-19169
进而	-19170
郑重	-19171
陕北	-19172
▁一大	-19173
▁也好	-19174
▁也算	-19175
▁保持	-19176
▁司马	-19177
▁省得	-19178
偷走了	-19179
只能在	-19180
因为在	-19181
妈妈在	-19182
当时在	-19183
是谁吗	-19184
来了啊	-19185
某一个	-19186
的一场	-19187
的脑袋	-19188
离开我	-19189
自己能	-19190
让你的	-19191
那我先	-19192
▁他应该	-19193
▁你还想	-19194
▁哎呀我	-19195
▁小花猫	-19196
▁我看看	-19197
▁老爷子	-19198
▁要我说	-19199
代表大会	-19200
国民党的	-19201
好多好多	-19202
我跟你讲	-19203
有多少人	-19204
的人就是	-19205
科学技术	-19206
这个行业	-19207
▁撒	-19208
▁斯	-19209
两杯	-19210
乱动	-19211
仁慈	-19212
写下	-19213
军政	-19214
出乎	-19215
劝他	-19216
大帝	-19217
子吗	-19218
小看	-19219
小车	-19220
春晚	-19221
比的	-19222
求助	-19223
流域	-19224
胭脂	-19225
请安	-19226
跟大	-19227
近的	-19228
进度	-19229
醉了	-19230
陈深	-19231
顾及	-19232
鱼类	-19233
▁早晨	-19234
▁生命	-19235
不小的	-19236
之外的	-19237
换来的	-19238
的身影	-19239
给你打	-19240
重要吗	-19241
这事儿啊	-19242
▁从那以后	-19243
▁有什么话	-19244
一是	-19245
体质	-19246
关怀	-19247
关爱	-19248
劝说	-19249
后我	-19250
和解	-19251
就变	-19252
心吊	-19253
懒惰	-19254
时会	-19255
煎熬	-19256
玩吧	-19257
着眼	-19258
自知	-19259
获奖	-19260
要被	-19261
视察	-19262
试剂	-19263
▁可她	-19264
▁贝贝	-19265
不到的	-19266
不跟你	-19267
他们呢	-19268
你认识	-19269
学院的	-19270
时发现	-19271
灌木丛	-19272
狙击手	-19273
的工具	-19274
自己家	-19275
▁我代表	-19276
▁这个小	-19277
一辈子的	-19278
你的事儿	-19279
准备一下	-19280
日子过得	-19281
跟你一样	-19282
▁所以现在	-19283
▁容	-19284
人事	-19285
俺们	-19286
假期	-19287
冒出	-19288
冬奥	-19289
凶器	-19290
切磋	-19291
在马	-19292
奔腾	-19293
室友	-19294
弄死	-19295
当心	-19296
拆了	-19297
撞到	-19298
播种	-19299
桥上	-19300
水解	-19301
登基	-19302
胡须	-19303
身心	-19304
这让	-19305
雷霆	-19306
非同	-19307
马屁	-19308
▁接受	-19309
▁都能	-19310
可以看	-19311
太忙了	-19312
氨基酸	-19313
温度计	-19314
痛苦的	-19315
目前的	-19316
石头上	-19317
研究的	-19318
里面去	-19319
▁他也是	-19320
▁他是个	-19321
▁您放心	-19322
▁我是你	-19323
三角形的	-19324
再也不敢	-19325
好好好好	-19326
竞争对手	-19327
出什么事了	-19328
▁答	-19329
一队	-19330
三下	-19331
你像	-19332
关的	-19333
凉快	-19334
切线	-19335
发呆	-19336
口碑	-19337
呢她	-19338
器材	-19339
如山	-19340
宇文	-19341
宗的	-19342
宽敞	-19343
巡抚	-19344
开学	-19345
惊人	-19346
我心	-19347
找谁	-19348
抽出	-19349
招来	-19350
排在	-19351
旨意	-19352
构造	-19353
灵通	-19354
父老	-19355
珊珊	-19356
违抗	-19357
间隔	-19358
顶端	-19359
高端	-19360
abc	-19361
▁但在	-19362
▁加入	-19363
一二三	-19364
不成了	-19365
就真的	-19366
当然要	-19367
担心我	-19368
查出来	-19369
案件的	-19370
活下来	-19371
闻到了	-19372
▁不能再	-19373
▁当我们	-19374
▁找到了	-19375
挺好看的	-19376
这些问题	-19377
都有一个	-19378
▁这个就是	-19379
中华人民共和国	-19380
▁志	-19381
一款	-19382
上钩	-19383
中小	-19384
云飞	-19385
作弊	-19386
你打	-19387
出土	-19388
刹那	-19389
受罪	-19390
外来	-19391
多吉	-19392
女篮	-19393
店主	-19394
开工	-19395
惨重	-19396
招人	-19397
摇篮	-19398
直言	-19399
缴获	-19400
罚款	-19401
血糖	-19402
言之	-19403
讲课	-19404
说它	-19405
骑车	-19406
不错了	-19407
任务是	-19408
倒在地	-19409
公司啊	-19410
厉害呀	-19411
工作呢	-19412
工作室	-19413
我保证	-19414
更应该	-19415
的事物	-19416
能力的	-19417
说一句	-19418
说了啊	-19419
还有我	-19420
这些了	-19421
那事儿	-19422
▁别忘了	-19423
▁另一个	-19424
▁小姐姐	-19425
▁我在想	-19426
▁我还想	-19427
等差数列	-19428
过去看看	-19429
还不行吗	-19430
▁怎么这么	-19431
▁聊	-19432
一吹	-19433
一尝	-19434
不乐	-19435
二虎	-19436
传的	-19437
储备	-19438
出动	-19439
切断	-19440
发作	-19441
启示	-19442
唯独	-19443
唱得	-19444
夜班	-19445
子呀	-19446
弯曲	-19447
强弱	-19448
想尽	-19449
水下	-19450
没带	-19451
牧师	-19452
狡辩	-19453
而归	-19454
触角	-19455
诚心	-19456
赛跑	-19457
钟情	-19458
▁很难	-19459
▁照片	-19460
▁那儿	-19461
上来说	-19462
不自禁	-19463
了我是	-19464
了还是	-19465
关注的	-19466
在不同	-19467
宋美龄	-19468
满满的	-19469
穿上了	-19470
讲一个	-19471
走出去	-19472
▁反正我	-19473
如果不是	-19474
完了之后	-19475
这个国家	-19476
为什么这么	-19477
你怎么知道	-19478
外面的世界	-19479
05	-19480
之势	-19481
也将	-19482
了可	-19483
五星	-19484
和您	-19485
垂头	-19486
墙角	-19487
天庭	-19488
害虫	-19489
应聘	-19490
开得	-19491
忠良	-19492
慌忙	-19493
打成	-19494
提防	-19495
来送	-19496
此处	-19497
衣食	-19498
贝克	-19499
足迹	-19500
连着	-19501
阶层	-19502
颠覆	-19503
▁一时	-19504
▁他这	-19505
▁再来	-19506
▁双方	-19507
▁还说	-19508
一边说	-19509
产品的	-19510
做事情	-19511
加拿大	-19512
啊你就	-19513
好谢谢	-19514
已经够	-19515
我还想	-19516
所做的	-19517
最近在	-19518
监狱里	-19519
真的想	-19520
等方面	-19521
谈不上	-19522
送回去	-19523
▁我那个	-19524
了我们的	-19525
从头到尾	-19526
他们一起	-19527
四个小时	-19528
怎么还没	-19529
职业生涯	-19530
▁是啊不过	-19531
乱七八糟的	-19532
▁我都不知道	-19533
43	-19534
不息	-19535
东江	-19536
元宝	-19537
君的	-19538
和黄	-19539
在先	-19540
定时	-19541
就将	-19542
很忙	-19543
忠实	-19544
拍到	-19545
挑衅	-19546
无心	-19547
栽赃	-19548
死里	-19549
水源	-19550
洞房	-19551
浓浓	-19552
热气	-19553
稳住	-19554
竹林	-19555
竹竿	-19556
踏上	-19557
还差	-19558
阴暗	-19559
▁分别	-19560
▁大学	-19561
▁得到	-19562
▁音乐	-19563
也只是	-19564
产阶级	-19565
他的人	-19566
你想象	-19567
司令官	-19568
啊而且	-19569
希望的	-19570
心吊胆	-19571
摘下来	-19572
无意中	-19573
最美的	-19574
江湖上	-19575
的香味	-19576
走下去	-19577
送给了	-19578
适用于	-19579
马拉松	-19580
▁后来我	-19581
有一个叫	-19582
然后他就	-19583
随随便便	-19584
很远的地方	-19585
▁丹	-19586
▁费	-19587
▁额	-19588
三条	-19589
下凡	-19590
下周	-19591
你用	-19592
元帅	-19593
在南	-19594
壮大	-19595
失利	-19596
心呢	-19597
怕她	-19598
收买	-19599
枝头	-19600
瘦了	-19601
群落	-19602
翡翠	-19603
运会	-19604
逃出	-19605
里皮	-19606
雯雯	-19607
露露	-19608
飞飞	-19609
高达	-19610
▁我本	-19611
▁月球	-19612
▁等待	-19613
不住啊	-19614
不等式	-19615
大声喊	-19616
大声地	-19617
好看吗	-19618
尊敬的	-19619
手机上	-19620
把房子	-19621
掉进了	-19622
有一块	-19623
治好了	-19624
盒子里	-19625
▁你打算	-19626
三长两短	-19627
他是不是	-19628
你看这个	-19629
发现这个	-19630
我们需要	-19631
的时候还	-19632
中国特色社会主义	-19633
下个	-19634
不休	-19635
书本	-19636
再敢	-19637
加盟	-19638
嗯那	-19639
妥当	-19640
忍耐	-19641
惊醒	-19642
标赛	-19643
活人	-19644
深山	-19645
红颜	-19646
质子	-19647
预感	-19648
预期	-19649
高空	-19650
▁就让	-19651
不了啊	-19652
不过去	-19653
他可能	-19654
准确的	-19655
吸引力	-19656
小王子	-19657
这样我	-19658
▁我不敢	-19659
▁是你们	-19660
▁第三个	-19661
也不至于	-19662
的一个小	-19663
▁我这心里	-19664
▁无论如何	-19665
又不是不知道	-19666
▁仙	-19667
▁蛇	-19668
一串	-19669
不收	-19670
东亚	-19671
他娘	-19672
压制	-19673
哀求	-19674
好些	-19675
存的	-19676
实体	-19677
打印	-19678
拘留	-19679
握手	-19680
携手	-19681
木材	-19682
枪支	-19683
用电	-19684
老五	-19685
诱饵	-19686
读过	-19687
难陀	-19688
风暴	-19689
▁测量	-19690
不了他	-19691
之前在	-19692
了可是	-19693
你说了	-19694
再回来	-19695
因为这	-19696
在背后	-19697
认识我	-19698
让我的	-19699
▁他们就	-19700
▁但其实	-19701
▁我是说	-19702
▁我这就	-19703
▁有的人	-19704
▁这房子	-19705
世界第一	-19706
所作所为	-19707
手里拿着	-19708
灵机一动	-19709
世道	-19710
再用	-19711
几种	-19712
办吧	-19713
句中	-19714
吃上	-19715
喝多	-19716
干系	-19717
弟妹	-19718
思索	-19719
您啊	-19720
日月	-19721
条例	-19722
汉朝	-19723
温泉	-19724
相伴	-19725
立在	-19726
篱笆	-19727
绅士	-19728
脚上	-19729
路灯	-19730
躲着	-19731
轮船	-19732
输给	-19733
▁和你	-19734
但没有	-19735
你身边	-19736
出水面	-19737
小麻雀	-19738
少年的	-19739
工作啊	-19740
微博上	-19741
把它给	-19742
搬出去	-19743
故正确	-19744
▁哎呀这	-19745
你们这个	-19746
谢谢你的	-19747
跟我说说	-19748
▁他是一个	-19749
▁我们这儿	-19750
从今天开始	-19751
是什么东西	-19752
不孝	-19753
便把	-19754
保养	-19755
偷渡	-19756
划分	-19757
北捷	-19758
唐诗	-19759
唱了	-19760
商家	-19761
宋代	-19762
宗主	-19763
当她	-19764
想见	-19765
打入	-19766
打通	-19767
拉住	-19768
推到	-19769
放人	-19770
果园	-19771
渣男	-19772
煎饼	-19773
白纸	-19774
的梦	-19775
看那	-19776
结盟	-19777
艾莉	-19778
财物	-19779
除数	-19780
鞭子	-19781
鲁莽	-19782
鸟的	-19783
▁台湾	-19784
▁呵呵	-19785
▁显然	-19786
▁更是	-19787
▁身为	-19788
上前去	-19789
今天来	-19790
做出来	-19791
很长的	-19792
要回来	-19793
不出来了	-19794
坐在这儿	-19795
▁归	-19796
一放	-19797
下马	-19798
主场	-19799
劝你	-19800
又高	-19801
叫了	-19802
嗯我	-19803
大功	-19804
天体	-19805
得来	-19806
手掌	-19807
搜寻	-19808
树洞	-19809
清静	-19810
牛郎	-19811
物件	-19812
玉佩	-19813
胸怀	-19814
花费	-19815
逃生	-19816
黄豆	-19817
▁爸妈	-19818
不理解	-19819
公元前	-19820
对咱们	-19821
导致的	-19822
我都能	-19823
方志敏	-19824
更加的	-19825
的物质	-19826
稻草人	-19827
这个了	-19828
▁哎这个	-19829
▁我说了	-19830
▁是是是	-19831
▁有本事	-19832
▁现在又	-19833
下定决心	-19834
他们就是	-19835
打过电话	-19836
的时候也	-19837
▁你们现在	-19838
一点儿都不	-19839
什么也没有	-19840
安全的地方	-19841
▁我怎么可能	-19842
说法正确的是	-19843
▁本题主要考查	-19844
▁断	-19845
体面	-19846
军在	-19847
分给	-19848
前锋	-19849
家是	-19850
成是	-19851
所受	-19852
洛克	-19853
淡定	-19854
猛烈	-19855
融资	-19856
馆长	-19857
400	-19858
▁校长	-19859
▁留下	-19860
一回事	-19861
严重了	-19862
作用力	-19863
多久了	-19864
失败的	-19865
当时我	-19866
心协力	-19867
所以她	-19868
拿一个	-19869
搞不懂	-19870
是植物	-19871
没发现	-19872
谁说的	-19873
通行证	-19874
高跟鞋	-19875
▁事实上	-19876
仔细一看	-19877
以后我们	-19878
住在这儿	-19879
可以直接	-19880
得很清楚	-19881
感觉自己	-19882
打草惊蛇	-19883
给我看看	-19884
这么久了	-19885
▁彩	-19886
交到	-19887
住手	-19888
克制	-19889
六位	-19890
六日	-19891
判定	-19892
北伐	-19893
后卫	-19894
在同	-19895
多余	-19896
大米	-19897
大脚	-19898
天性	-19899
好来	-19900
存亡	-19901
孵化	-19902
弘扬	-19903
恳请	-19904
授予	-19905
木马	-19906
沦陷	-19907
泡面	-19908
流畅	-19909
渡口	-19910
确立	-19911
立业	-19912
阳的	-19913
降雨	-19914
▁故意	-19915
▁豆豆	-19916
多久啊	-19917
好孩子	-19918
很聪明	-19919
愁眉苦	-19920
成就感	-19921
放在了	-19922
材料的	-19923
林书豪	-19924
比较有	-19925
犯错误	-19926
的现在	-19927
的知识	-19928
自由的	-19929
许许多	-19930
遇见了	-19931
▁你还能	-19932
▁对不对	-19933
▁肯定会	-19934
▁要不我	-19935
叹了口气	-19936
合作伙伴	-19937
那我们就	-19938
▁是啊是啊	-19939
你为什么不	-19940
▁爷	-19941
▁理	-19942
一斤	-19943
一轮	-19944
下游	-19945
亦臻	-19946
人杰	-19947
农耕	-19948
商鞅	-19949
好在	-19950
对准	-19951
小月	-19952
小金	-19953
尔文	-19954
搜捕	-19955
更快	-19956
本性	-19957
来买	-19958
架上	-19959
桃树	-19960
沼泽	-19961
象牙	-19962
跳绳	-19963
这名	-19964
进到	-19965
追剧	-19966
遗物	-19967
鞭炮	-19968
▁傍晚	-19969
▁哇那	-19970
▁我老	-19971
▁相公	-19972
▁阅读	-19973
不过你	-19974
于是就	-19975
他一直	-19976
力支持	-19977
坐飞机	-19978
小鸭子	-19979
就死了	-19980
怕什么	-19981
找机会	-19982
拥有了	-19983
的习惯	-19984
的效果	-19985
说孩子	-19986
还是先	-19987
这些事	-19988
▁我实在	-19989
▁我跟我	-19990
一个机会	-19991
中国古代	-19992
回答错误	-19993
我我我我	-19994
我这辈子	-19995
短时间内	-19996
▁我看你是	-19997
协同	-19998
双双	-19999
吁吁	-20000
和金	-20001
地了	-20002
天皇	-20003
好你	-20004
它不	-20005
害我	-20006
容忍	-20007
小丑	-20008
撤销	-20009
有眼	-20010
木块	-20011
楼房	-20012
母的	-20013
求救	-20014
沧海	-20015
笨熊	-20016
红星	-20017
老兵	-20018
解脱	-20019
试卷	-20020
陈毅	-20021
▁不再	-20022
▁你问	-20023
▁政治	-20024
▁死了	-20025
▁那位	-20026
参照物	-20027
小蜜蜂	-20028
就不好	-20029
我所知	-20030
时不时	-20031
王朝的	-20032
用电器	-20033
的光芒	-20034
的情景	-20035
行了你	-20036
走了你	-20037
过去啊	-20038
不容易了	-20039
再也不会	-20040
[...]
